<unk>	0
<s>	0
</s>	0
<0x00>	0
<0x01>	0
<0x02>	0
<0x03>	0
<0x04>	0
<0x05>	0
<0x06>	0
<0x07>	0
<0x08>	0
<0x09>	0
<0x0A>	0
<0x0B>	0
<0x0C>	0
<0x0D>	0
<0x0E>	0
<0x0F>	0
<0x10>	0
<0x11>	0
<0x12>	0
<0x13>	0
<0x14>	0
<0x15>	0
<0x16>	0
<0x17>	0
<0x18>	0
<0x19>	0
<0x1A>	0
<0x1B>	0
<0x1C>	0
<0x1D>	0
<0x1E>	0
<0x1F>	0
<0x20>	0
<0x21>	0
<0x22>	0
<0x23>	0
<0x24>	0
<0x25>	0
<0x26>	0
<0x27>	0
<0x28>	0
<0x29>	0
<0x2A>	0
<0x2B>	0
<0x2C>	0
<0x2D>	0
<0x2E>	0
<0x2F>	0
<0x30>	0
<0x31>	0
<0x32>	0
<0x33>	0
<0x34>	0
<0x35>	0
<0x36>	0
<0x37>	0
<0x38>	0
<0x39>	0
<0x3A>	0
<0x3B>	0
<0x3C>	0
<0x3D>	0
<0x3E>	0
<0x3F>	0
<0x40>	0
<0x41>	0
<0x42>	0
<0x43>	0
<0x44>	0
<0x45>	0
<0x46>	0
<0x47>	0
<0x48>	0
<0x49>	0
<0x4A>	0
<0x4B>	0
<0x4C>	0
<0x4D>	0
<0x4E>	0
<0x4F>	0
<0x50>	0
<0x51>	0
<0x52>	0
<0x53>	0
<0x54>	0
<0x55>	0
<0x56>	0
<0x57>	0
<0x58>	0
<0x59>	0
<0x5A>	0
<0x5B>	0
<0x5C>	0
<0x5D>	0
<0x5E>	0
<0x5F>	0
<0x60>	0
<0x61>	0
<0x62>	0
<0x63>	0
<0x64>	0
<0x65>	0
<0x66>	0
<0x67>	0
<0x68>	0
<0x69>	0
<0x6A>	0
<0x6B>	0
<0x6C>	0
<0x6D>	0
<0x6E>	0
<0x6F>	0
<0x70>	0
<0x71>	0
<0x72>	0
<0x73>	0
<0x74>	0
<0x75>	0
<0x76>	0
<0x77>	0
<0x78>	0
<0x79>	0
<0x7A>	0
<0x7B>	0
<0x7C>	0
<0x7D>	0
<0x7E>	0
<0x7F>	0
<0x80>	0
<0x81>	0
<0x82>	0
<0x83>	0
<0x84>	0
<0x85>	0
<0x86>	0
<0x87>	0
<0x88>	0
<0x89>	0
<0x8A>	0
<0x8B>	0
<0x8C>	0
<0x8D>	0
<0x8E>	0
<0x8F>	0
<0x90>	0
<0x91>	0
<0x92>	0
<0x93>	0
<0x94>	0
<0x95>	0
<0x96>	0
<0x97>	0
<0x98>	0
<0x99>	0
<0x9A>	0
<0x9B>	0
<0x9C>	0
<0x9D>	0
<0x9E>	0
<0x9F>	0
<0xA0>	0
<0xA1>	0
<0xA2>	0
<0xA3>	0
<0xA4>	0
<0xA5>	0
<0xA6>	0
<0xA7>	0
<0xA8>	0
<0xA9>	0
<0xAA>	0
<0xAB>	0
<0xAC>	0
<0xAD>	0
<0xAE>	0
<0xAF>	0
<0xB0>	0
<0xB1>	0
<0xB2>	0
<0xB3>	0
<0xB4>	0
<0xB5>	0
<0xB6>	0
<0xB7>	0
<0xB8>	0
<0xB9>	0
<0xBA>	0
<0xBB>	0
<0xBC>	0
<0xBD>	0
<0xBE>	0
<0xBF>	0
<0xC0>	0
<0xC1>	0
<0xC2>	0
<0xC3>	0
<0xC4>	0
<0xC5>	0
<0xC6>	0
<0xC7>	0
<0xC8>	0
<0xC9>	0
<0xCA>	0
<0xCB>	0
<0xCC>	0
<0xCD>	0
<0xCE>	0
<0xCF>	0
<0xD0>	0
<0xD1>	0
<0xD2>	0
<0xD3>	0
<0xD4>	0
<0xD5>	0
<0xD6>	0
<0xD7>	0
<0xD8>	0
<0xD9>	0
<0xDA>	0
<0xDB>	0
<0xDC>	0
<0xDD>	0
<0xDE>	0
<0xDF>	0
<0xE0>	0
<0xE1>	0
<0xE2>	0
<0xE3>	0
<0xE4>	0
<0xE5>	0
<0xE6>	0
<0xE7>	0
<0xE8>	0
<0xE9>	0
<0xEA>	0
<0xEB>	0
<0xEC>	0
<0xED>	0
<0xEE>	0
<0xEF>	0
<0xF0>	0
<0xF1>	0
<0xF2>	0
<0xF3>	0
<0xF4>	0
<0xF5>	0
<0xF6>	0
<0xF7>	0
<0xF8>	0
<0xF9>	0
<0xFA>	0
<0xFB>	0
<0xFC>	0
<0xFD>	0
<0xFE>	0
<0xFF>	0
in	-0
▁t	-1
▁a	-2
re	-3
on	-4
at	-5
he	-6
▁c	-7
es	-8
ing	-9
en	-10
ion	-11
er	-12
is	-13
▁s	-14
or	-15
al	-16
▁the	-17
it	-18
an	-19
▁p	-20
▁o	-21
▁d	-22
▁in	-23
im	-24
ct	-25
▁an	-26
▁f	-27
▁b	-28
▁m	-29
▁w	-30
ed	-31
ar	-32
▁re	-33
ent	-34
ro	-35
▁to	-36
ation	-37
▁l	-38
ic	-39
ag	-40
▁im	-41
el	-42
et	-43
▁of	-44
▁and	-45
ect	-46
om	-47
▁imag	-48
if	-49
ig	-50
▁v	-51
st	-52
ut	-53
res	-54
▁e	-55
le	-56
▁u	-57
ith	-58
▁com	-59
▁T	-60
▁th	-61
ur	-62
ce	-63
ch	-64
as	-65
▁is	-66
▁comp	-67
ly	-68
id	-69
ou	-70
ow	-71
▁image	-72
ra	-73
se	-74
igh	-75
▁al	-76
ol	-77
il	-78
iv	-79
▁with	-80
▁n	-81
▁con	-82
ess	-83
▁h	-84
ul	-85
ject	-86
nd	-87
▁ob	-88
ations	-89
▁pro	-90
ist	-91
▁object	-92
▁on	-93
▁or	-94
qu	-95
ke	-96
▁mo	-97
his	-98
▁vis	-99
ial	-100
▁for	-101
ight	-102
▁it	-103
▁be	-104
ate	-105
ers	-106
▁This	-107
stan	-108
pt	-109
▁that	-110
▁int	-111
pl	-112
ment	-113
▁li	-114
ions	-115
▁det	-116
▁comput	-117
▁I	-118
▁images	-119
iz	-120
ity	-121
▁g	-122
ures	-123
▁whe	-124
▁can	-125
▁po	-126
orm	-127
am	-128
▁wh	-129
▁us	-130
▁ac	-131
ure	-132
▁as	-133
▁ex	-134
ding	-135
▁le	-136
▁like	-137
▁by	-138
form	-139
cess	-140
▁The	-141
ere	-142
eat	-143
▁ap	-144
ific	-145
▁ch	-146
ens	-147
ver	-148
pe	-149
▁vision	-150
▁dat	-151
nt	-152
etw	-153
iff	-154
ir	-155
ans	-156
▁diff	-157
▁st	-158
▁feat	-159
ix	-160
▁id	-161
▁process	-162
▁computer	-163
ign	-164
▁sc	-165
ac	-166
ru	-167
cur	-168
og	-169
▁within	-170
ify	-171
ies	-172
ixel	-173
ab	-174
▁ma	-175
▁pixel	-176
▁ident	-177
ot	-178
ges	-179
▁te	-180
▁F	-181
▁are	-182
ely	-183
ine	-184
▁differe	-185
nder	-186
int	-187
ant	-188
▁de	-189
▁y	-190
een	-191
▁under	-192
ms	-193
gor	-194
▁C	-195
ive	-196
ff	-197
ge	-198
▁dist	-199
ical	-200
etween	-201
▁between	-202
ter	-203
rom	-204
▁su	-205
ual	-206
▁from	-207
gorith	-208
her	-209
resent	-210
▁sh	-211
ip	-212
ain	-213
▁algorith	-214
▁objects	-215
all	-216
▁identify	-217
▁features	-218
ari	-219
ach	-220
▁data	-221
▁accur	-222
▁me	-223
▁you	-224
▁detect	-225
▁mod	-226
▁where	-227
ance	-228
▁tr	-229
ve	-230
▁rep	-231
ult	-232
▁understan	-233
ition	-234
ss	-235
▁all	-236
▁ed	-237
▁ne	-238
▁For	-239
▁se	-240
▁model	-241
▁rel	-242
▁their	-243
▁represent	-244
oc	-245
aly	-246
ks	-247
▁cont	-248
▁rec	-249
▁analy	-250
rou	-251
act	-252
▁ro	-253
▁different	-254
▁en	-255
▁instan	-256
vol	-257
▁ca	-258
▁reg	-259
ld	-260
▁A	-261
▁instance	-262
▁tra	-263
▁trans	-264
ient	-265
iqu	-266
niqu	-267
▁these	-268
ust	-269
▁this	-270
▁par	-271
red	-272
▁its	-273
um	-274
▁allow	-275
▁\	-276
alu	-277
pec	-278
ased	-279
ri	-280
ors	-281
▁vari	-282
▁used	-283
pro	-284
▁how	-285
arn	-286
▁eff	-287
formation	-288
▁tech	-289
ogn	-290
▁learn	-291
ds	-292
▁recogn	-293
▁scen	-294
ise	-295
per	-296
ential	-297
ves	-298
▁cl	-299
▁sign	-300
▁techniqu	-301
▁algorithms	-302
os	-303
ction	-304
▁valu	-305
▁spec	-306
▁point	-307
▁light	-308
ces	-309
▁res	-310
▁he	-311
ous	-312
▁sim	-313
lex	-314
▁invol	-315
▁H	-316
ste	-317
ating	-318
▁mat	-319
ile	-320
▁appl	-321
▁chan	-322
▁based	-323
▁edges	-324
ie	-325
▁ref	-326
ize	-327
▁pat	-328
ould	-329
▁complex	-330
▁do	-331
▁specific	-332
▁ab	-333
est	-334
▁each	-335
▁when	-336
ad	-337
▁cor	-338
▁tas	-339
king	-340
▁ad	-341
▁detection	-342
▁no	-343
ns	-344
▁over	-345
▁understand	-346
xt	-347
▁r	-348
▁col	-349
▁per	-350
▁W	-351
us	-352
ho	-353
▁information	-354
ther	-355
▁visual	-356
▁capt	-357
▁sy	-358
▁signific	-359
du	-360
▁pixels	-361
▁des	-362
ail	-363
round	-364
▁met	-365
▁analyz	-366
▁patter	-367
▁syste	-368
▁significant	-369
lp	-370
▁help	-371
ary	-372
ining	-373
▁more	-374
▁tasks	-375
▁involves	-376
▁How	-377
▁It	-378
ich	-379
▁cons	-380
gment	-381
cial	-382
▁inter	-383
▁using	-384
▁cru	-385
▁crucial	-386
ort	-387
▁which	-388
ution	-389
▁patterns	-390
itions	-391
▁Wh	-392
▁intens	-393
▁applic	-394
▁effect	-395
ay	-396
▁them	-397
▁recognition	-398
▁sm	-399
ass	-400
uring	-401
▁sha	-402
▁high	-403
ively	-404
▁learning	-405
ross	-406
able	-407
▁allows	-408
▁noise	-409
▁fil	-410
out	-411
and	-412
ph	-413
▁such	-414
▁gra	-415
ful	-416
▁we	-417
▁points	-418
▁sp	-419
▁values	-420
allen	-421
▁challen	-422
▁(	-423
ates	-424
▁bec	-425
ple	-426
▁bl	-427
▁while	-428
▁what	-429
▁ev	-430
iple	-431
▁S	-432
▁segment	-433
▁B	-434
▁part	-435
ments	-436
▁detail	-437
▁stru	-438
ict	-439
▁fin	-440
▁across	-441
▁into	-442
▁out	-443
ately	-444
▁pr	-445
▁might	-446
▁other	-447
▁metho	-448
▁color	-449
ving	-450
▁identifying	-451
aling	-452
▁co	-453
▁appro	-454
ated	-455
enc	-456
▁Can	-457
▁loc	-458
▁processing	-459
▁text	-460
▁ind	-461
ire	-462
put	-463
▁cre	-464
▁pos	-465
au	-466
ility	-467
▁expl	-468
▁fu	-469
▁does	-470
▁at	-471
ue	-472
entially	-473
ose	-474
▁result	-475
oth	-476
ide	-477
▁changes	-478
amer	-479
▁scene	-480
ric	-481
▁mult	-482
rib	-483
▁pre	-484
pect	-485
▁camer	-486
▁align	-487
ell	-488
ilar	-489
▁pred	-490
istic	-491
ten	-492
▁imp	-493
▁These	-494
▁ar	-495
▁technique	-496
▁k	-497
▁opt	-498
aset	-499
hip	-500
ence	-501
▁relations	-502
ound	-503
▁relationship	-504
▁regions	-505
▁redu	-506
age	-507
▁understanding	-508
▁dataset	-509
▁ext	-510
our	-511
ular	-512
sis	-513
ever	-514
vel	-515
mon	-516
▁accurately	-517
ization	-518
▁E	-519
▁intensity	-520
▁variations	-521
▁In	-522
ness	-523
▁exam	-524
pon	-525
▁real	-526
▁un	-527
les	-528
▁analysis	-529
▁capture	-530
▁accurate	-531
▁even	-532
▁often	-533
▁R	-534
▁struct	-535
▁cal	-536
▁class	-537
▁inc	-538
▁transform	-539
just	-540
ress	-541
▁lea	-542
▁algorithm	-543
izing	-544
▁techniques	-545
▁oper	-546
▁explain	-547
▁training	-548
▁med	-549
chie	-550
▁grad	-551
▁qu	-552
▁sur	-553
cept	-554
▁similar	-555
▁common	-556
▁feature	-557
▁min	-558
ace	-559
amet	-560
▁optim	-561
▁"	-562
▁multiple	-563
▁achie	-564
▁use	-565
acy	-566
ative	-567
▁el	-568
▁ass	-569
▁if	-570
▁consid	-571
▁segmentation	-572
cul	-573
▁refers	-574
▁sub	-575
▁However	-576
ep	-577
▁accuracy	-578
▁perform	-579
gh	-580
lying	-581
▁calcul	-582
ib	-583
ill	-584
▁differen	-585
▁bound	-586
erm	-587
▁requ	-588
▁predict	-589
▁minim	-590
▁extra	-591
▁ph	-592
▁approach	-593
nT	-594
ogra	-595
▁interp	-596
▁paramet	-597
▁wor	-598
▁pot	-599
respon	-600
▁rob	-601
▁fac	-602
light	-603
▁models	-604
▁ha	-605
▁correspon	-606
▁effectively	-607
etwor	-608
▁By	-609
▁then	-610
▁desc	-611
▁adjust	-612
▁distin	-613
ting	-614
ined	-615
ities	-616
▁gradient	-617
▁medical	-618
ause	-619
▁because	-620
ack	-621
▁br	-622
▁ess	-623
▁tw	-624
▁edge	-625
▁car	-626
ighb	-627
▁What	-628
▁ke	-629
▁analyzing	-630
ivid	-631
▁details	-632
▁determ	-633
▁man	-634
▁applications	-635
▁lighting	-636
▁two	-637
▁various	-638
iew	-639
pes	-640
▁pl	-641
▁key	-642
▁est	-643
▁about	-644
▁camera	-645
ency	-646
▁distinct	-647
▁systems	-648
hol	-649
▁cond	-650
omet	-651
▁system	-652
▁filter	-653
reshol	-654
▁ty	-655
▁view	-656
ines	-657
lu	-658
rough	-659
▁impro	-660
▁relationships	-661
▁aim	-662
▁making	-663
▁foc	-664
▁partic	-665
▁example	-666
ural	-667
▁sens	-668
▁neighb	-669
ching	-670
▁fun	-671
▁mean	-672
▁conditions	-673
▁threshol	-674
▁rot	-675
▁particular	-676
▁Im	-677
▁sel	-678
▁through	-679
▁ele	-680
▁consider	-681
▁transformations	-682
ret	-683
▁blur	-684
▁effic	-685
▁lar	-686
ration	-687
▁leading	-688
▁bright	-689
▁phot	-690
imit	-691
▁they	-692
▁rem	-693
ging	-694
▁helps	-695
▁ens	-696
pp	-697
▁have	-698
▁parameters	-699
ied	-700
▁small	-701
▁networ	-702
▁dis	-703
▁imaging	-704
od	-705
ification	-706
▁size	-707
▁dire	-708
ale	-709
▁allowing	-710
▁limit	-711
▁textures	-712
▁methods	-713
av	-714
▁enh	-715
▁pers	-716
ved	-717
▁act	-718
▁distort	-719
ividual	-720
▁individual	-721
▁challenge	-722
mat	-723
▁robust	-724
arp	-725
▁N	-726
▁due	-727
▁need	-728
▁smo	-729
▁dealing	-730
are	-731
▁G	-732
▁char	-733
▁O	-734
oint	-735
▁charact	-736
▁estim	-737
ling	-738
▁go	-739
▁em	-740
▁representation	-741
▁Could	-742
▁datasets	-743
▁gen	-744
▁focus	-745
▁regist	-746
▁app	-747
aries	-748
atial	-749
▁scenes	-750
▁areas	-751
▁performance	-752
NN	-753
▁shape	-754
ome	-755
now	-756
requ	-757
▁character	-758
ground	-759
▁M	-760
▁position	-761
ational	-762
▁input	-763
▁don	-764
ish	-765
▁er	-766
▁mis	-767
aining	-768
▁neighbor	-769
olution	-770
▁boundaries	-771
▁particularly	-772
riv	-773
▁prim	-774
ically	-775
▁application	-776
▁set	-777
ore	-778
▁know	-779
▁prov	-780
ount	-781
th	-782
▁gener	-783
▁aff	-784
▁spatial	-785
▁create	-786
eomet	-787
▁corn	-788
ram	-789
point	-790
▁but	-791
ograph	-792
ast	-793
▁appe	-794
cing	-795
ality	-796
abel	-797
▁lo	-798
▁comb	-799
riving	-800
▁imagine	-801
▁significantly	-802
▁function	-803
▁would	-804
▁sharp	-805
▁value	-806
▁corresponding	-807
▁oc	-808
ower	-809
wor	-810
▁registration	-811
▁level	-812
ian	-813
▁overall	-814
▁D	-815
▁prec	-816
▁lead	-817
▁brightness	-818
▁move	-819
▁perspect	-820
▁characteristic	-821
▁sam	-822
▁relies	-823
▁back	-824
▁fact	-825
ern	-826
▁geomet	-827
▁analyze	-828
▁lies	-829
▁computational	-830
▁smooth	-831
▁aims	-832
▁primary	-833
par	-834
nThe	-835
▁role	-836
▁ability	-837
▁potential	-838
▁vary	-839
▁characteristics	-840
▁method	-841
vir	-842
viron	-843
▁environ	-844
agn	-845
de	-846
▁pres	-847
▁am	-848
▁shapes	-849
▁extract	-850
lect	-851
▁ang	-852
▁those	-853
hemat	-854
▁enab	-855
get	-856
▁subt	-857
▁impact	-858
▁mathemat	-859
▁both	-860
▁pur	-861
ind	-862
▁applying	-863
▁distance	-864
▁hand	-865
volution	-866
inc	-867
▁vide	-868
▁local	-869
▁appear	-870
▁err	-871
▁consist	-872
▁compar	-873
▁label	-874
▁ta	-875
▁so	-876
▁efficient	-877
▁orient	-878
▁interpret	-879
▁not	-880
▁prob	-881
▁why	-882
▁highlight	-883
▁could	-884
▁results	-885
▁trac	-886
▁finding	-887
ong	-888
rent	-889
▁elements	-890
ext	-891
▁L	-892
▁meas	-893
▁matching	-894
▁during	-895
▁affect	-896
▁num	-897
▁frequ	-898
▁import	-899
▁structure	-900
▁may	-901
ime	-902
izes	-903
▁mach	-904
▁transformation	-905
▁requi	-906
rast	-907
▁surround	-908
▁purp	-909
▁fram	-910
▁goal	-911
▁concept	-912
imens	-913
▁surrounding	-914
▁Con	-915
▁mathematical	-916
end	-917
mental	-918
ard	-919
ert	-920
▁facial	-921
umin	-922
ys	-923
▁without	-924
▁iter	-925
▁subtle	-926
▁varying	-927
▁princ	-928
▁tell	-929
ob	-930
ability	-931
▁differences	-932
▁background	-933
▁context	-934
▁corners	-935
▁relative	-936
ression	-937
hes	-938
ible	-939
▁enhance	-940
▁blurr	-941
ters	-942
▁large	-943
ared	-944
▁core	-945
▁art	-946
ingu	-947
▁play	-948
▁change	-949
itional	-950
▁optimal	-951
▁aut	-952
ne	-953
ipul	-954
▁computers	-955
▁manipul	-956
▁inf	-957
▁P	-958
li	-959
ances	-960
▁distingu	-961
world	-962
▁bu	-963
▁machine	-964
▁captured	-965
▁rate	-966
▁reflect	-967
▁meaning	-968
▁difference	-969
▁purpose	-970
cl	-971
inal	-972
▁perspective	-973
ditional	-974
▁factors	-975
▁improve	-976
ps	-977
▁While	-978
▁conver	-979
▁ra	-980
▁Imag	-981
▁weight	-982
ribut	-983
▁distinguish	-984
▁than	-985
▁select	-986
▁new	-987
pth	-988
ord	-989
▁contrast	-990
ernel	-991
nA	-992
▁operations	-993
kes	-994
ized	-995
▁requires	-996
▁buil	-997
▁any	-998
▁filters	-999
▁determine	-1000
▁Imagine	-1001
▁means	-1002
itu	-1003
▁transl	-1004
ples	-1005
herent	-1006
▁They	-1007
▁representing	-1008
▁resulting	-1009
nda	-1010
ndamental	-1011
▁orig	-1012
▁fundamental	-1013
▁enabling	-1014
▁ill	-1015
▁kernel	-1016
▁useful	-1017
▁find	-1018
▁important	-1019
▁recognize	-1020
▁dep	-1021
▁def	-1022
▁depth	-1023
ssentially	-1024
▁applied	-1025
ital	-1026
▁remo	-1027
▁original	-1028
plo	-1029
pping	-1030
stru	-1031
▁reli	-1032
▁present	-1033
ree	-1034
iel	-1035
▁texture	-1036
▁cars	-1037
▁clust	-1038
▁quality	-1039
ite	-1040
▁neural	-1041
▁surf	-1042
▁capturing	-1043
▁separ	-1044
▁rotation	-1045
▁essentially	-1046
▁overl	-1047
▁inherent	-1048
▁preser	-1049
ents	-1050
xim	-1051
ying	-1052
▁hum	-1053
ifies	-1054
inear	-1055
▁compon	-1056
ingle	-1057
▁scaling	-1058
accur	-1059
ues	-1060
volutional	-1061
▁colors	-1062
▁single	-1063
▁positions	-1064
▁step	-1065
▁dig	-1066
ript	-1067
points	-1068
▁complexity	-1069
▁gradients	-1070
▁inaccur	-1071
▁creating	-1072
▁comparing	-1073
▁alignment	-1074
▁essential	-1075
▁photograph	-1076
nect	-1077
▁space	-1078
▁consistent	-1079
▁disc	-1080
▁emplo	-1081
▁orientation	-1082
▁filtering	-1083
andom	-1084
ences	-1085
▁geometric	-1086
▁direct	-1087
▁network	-1088
▁scans	-1089
▁ide	-1090
avig	-1091
▁navig	-1092
▁conf	-1093
used	-1094
▁low	-1095
▁neighboring	-1096
▁output	-1097
▁threshold	-1098
▁descript	-1099
▁make	-1100
▁representations	-1101
▁provid	-1102
▁classification	-1103
icult	-1104
▁difficult	-1105
▁represents	-1106
▁scale	-1107
▁obs	-1108
▁predictions	-1109
▁overla	-1110
▁exp	-1111
▁angles	-1112
▁video	-1113
▁extraction	-1114
▁dec	-1115
ered	-1116
▁makes	-1117
▁region	-1118
▁intensities	-1119
▁simpl	-1120
▁beh	-1121
▁compared	-1122
ordin	-1123
▁scenari	-1124
less	-1125
▁calculating	-1126
▁containing	-1127
▁influ	-1128
▁typ	-1129
ering	-1130
other	-1131
ives	-1132
▁aspect	-1133
▁–	-1134
omes	-1135
▁challenges	-1136
▁illumin	-1137
▁networks	-1138
olog	-1139
▁tracking	-1140
▁div	-1141
pert	-1142
▁around	-1143
gth	-1144
onom	-1145
▁principle	-1146
▁digital	-1147
rodu	-1148
▁coordin	-1149
▁sol	-1150
▁work	-1151
▁lines	-1152
▁potentially	-1153
▁well	-1154
ially	-1155
▁aver	-1156
▁direction	-1157
itting	-1158
iss	-1159
▁recon	-1160
▁reconstru	-1161
▁fiel	-1162
ange	-1163
▁design	-1164
oci	-1165
▁ut	-1166
▁precise	-1167
▁shif	-1168
▁cameras	-1169
▁time	-1170
▁structures	-1171
▁typically	-1172
▁location	-1173
▁scenarios	-1174
imension	-1175
▁building	-1176
▁util	-1177
vant	-1178
▁isol	-1179
auss	-1180
vers	-1181
anc	-1182
▁numb	-1183
▁Essentially	-1184
▁squ	-1185
low	-1186
▁Gauss	-1187
▁there	-1188
▁form	-1189
ger	-1190
ffic	-1191
ception	-1192
▁loss	-1193
ier	-1194
ken	-1195
▁inaccurate	-1196
▁Gaussian	-1197
acts	-1198
onomous	-1199
▁incre	-1200
▁introdu	-1201
▁achieve	-1202
encies	-1203
▁levels	-1204
▁describ	-1205
▁autonomous	-1206
▁power	-1207
▁optimization	-1208
cale	-1209
ision	-1210
ice	-1211
ts	-1212
▁care	-1213
ark	-1214
olation	-1215
▁fur	-1216
▁ent	-1217
edest	-1218
edestri	-1219
▁general	-1220
▁rat	-1221
▁meaningful	-1222
▁lens	-1223
▁corre	-1224
▁associ	-1225
▁transitions	-1226
▁sensor	-1227
hen	-1228
nThis	-1229
▁di	-1230
ribution	-1231
▁enc	-1232
▁shad	-1233
▁pedestri	-1234
▁self	-1235
▁project	-1236
▁illumination	-1237
▁faces	-1238
▁careful	-1239
▁some	-1240
▁contribut	-1241
gether	-1242
▁together	-1243
con	-1244
▁adjusting	-1245
▁Image	-1246
ane	-1247
NNs	-1248
▁way	-1249
▁propert	-1250
stead	-1251
avi	-1252
▁smaller	-1253
▁one	-1254
▁perce	-1255
ands	-1256
▁occur	-1257
▁poss	-1258
▁indic	-1259
▁same	-1260
▁diagn	-1261
ract	-1262
ified	-1263
▁hig	-1264
ases	-1265
▁metric	-1266
▁movement	-1267
gg	-1268
ired	-1269
▁detecting	-1270
▁number	-1271
▁up	-1272
▁mot	-1273
▁content	-1274
▁achieved	-1275
▁recognizing	-1276
▁non	-1277
▁distribution	-1278
driving	-1279
atively	-1280
▁trained	-1281
▁sensit	-1282
▁has	-1283
etter	-1284
reat	-1285
nique	-1286
▁simple	-1287
▁your	-1288
▁better	-1289
▁signal	-1290
▁trying	-1291
▁distances	-1292
ending	-1293
▁connect	-1294
▁taken	-1295
vari	-1296
▁similarity	-1297
▁maint	-1298
▁cur	-1299
▁components	-1300
▁associated	-1301
▁unique	-1302
▁driving	-1303
▁tru	-1304
▁motion	-1305
▁measure	-1306
▁preserving	-1307
fect	-1308
based	-1309
ivity	-1310
ons	-1311
▁distortion	-1312
▁quant	-1313
▁limitations	-1314
▁amount	-1315
▁ve	-1316
clus	-1317
nce	-1318
▁our	-1319
so	-1320
▁blurring	-1321
▁also	-1322
▁employ	-1323
▁thresholding	-1324
▁ey	-1325
▁challenging	-1326
▁minimizing	-1327
▁tiss	-1328
▁str	-1329
▁bi	-1330
▁actual	-1331
▁artif	-1332
▁most	-1333
▁aligning	-1334
▁higher	-1335
▁reducing	-1336
▁fine	-1337
hic	-1338
▁reduce	-1339
▁vehic	-1340
▁possible	-1341
▁remain	-1342
▁rely	-1343
▁correspond	-1344
▁strugg	-1345
▁frequency	-1346
▁inclu	-1347
▁resolution	-1348
asing	-1349
▁cat	-1350
▁larger	-1351
uch	-1352
▁Com	-1353
▁cle	-1354
▁being	-1355
▁ensuring	-1356
▁artifacts	-1357
ages	-1358
▁slight	-1359
▁desired	-1360
▁bo	-1361
ources	-1362
▁further	-1363
▁uses	-1364
▁proble	-1365
▁random	-1366
▁pict	-1367
▁involve	-1368
▁less	-1369
ength	-1370
▁parts	-1371
▁best	-1372
▁diver	-1373
▁error	-1374
▁effective	-1375
▁clos	-1376
▁much	-1377
▁assign	-1378
▁surface	-1379
its	-1380
ef	-1381
▁Ne	-1382
▁idea	-1383
▁pedestrians	-1384
▁sequ	-1385
nL	-1386
▁cert	-1387
rupt	-1388
▁occlus	-1389
peed	-1390
▁properties	-1391
▁errors	-1392
ase	-1393
▁behind	-1394
▁becomes	-1395
▁es	-1396
▁interpolation	-1397
▁acc	-1398
▁weights	-1399
▁estimation	-1400
▁certain	-1401
fore	-1402
ifying	-1403
▁cent	-1404
▁espec	-1405
▁frame	-1406
▁especially	-1407
▁translation	-1408
▁environments	-1409
imes	-1410
▁frames	-1411
▁distortions	-1412
ches	-1413
▁lay	-1414
liers	-1415
istogra	-1416
▁task	-1417
ics	-1418
nLet	-1419
hood	-1420
▁Feat	-1421
▁intric	-1422
▁assum	-1423
▁provide	-1424
vi	-1425
apt	-1426
▁smoothing	-1427
▁distinctive	-1428
▁Its	-1429
▁bal	-1430
▁cho	-1431
▁ensure	-1432
▁bel	-1433
iency	-1434
▁deep	-1435
▁interact	-1436
▁limitation	-1437
▁coordinates	-1438
▁entire	-1439
▁plays	-1440
▁diagnos	-1441
arch	-1442
▁box	-1443
ry	-1444
▁intricate	-1445
▁estimate	-1446
▁convolutional	-1447
▁overlapping	-1448
▁require	-1449
▁road	-1450
▁contribute	-1451
▁range	-1452
▁exist	-1453
▁stre	-1454
abil	-1455
▁diverse	-1456
nO	-1457
▁labeled	-1458
▁human	-1459
▁focuses	-1460
▁dow	-1461
▁miss	-1462
amic	-1463
erest	-1464
rix	-1465
ares	-1466
▁underlying	-1467
▁struggle	-1468
▁nat	-1469
ening	-1470
▁environment	-1471
▁matrix	-1472
▁traditional	-1473
▁add	-1474
▁iteratively	-1475
iven	-1476
▁true	-1477
▁isolate	-1478
ards	-1479
to	-1480
▁appearance	-1481
▁examples	-1482
▁minimize	-1483
▁speed	-1484
▁match	-1485
▁works	-1486
▁types	-1487
▁grou	-1488
▁will	-1489
ang	-1490
▁equ	-1491
rans	-1492
lob	-1493
▁directly	-1494
▁employed	-1495
ises	-1496
▁identification	-1497
▁contin	-1498
levant	-1499
▁scal	-1500
▁ensures	-1501
imensional	-1502
lobal	-1503
eg	-1504
yn	-1505
▁vehicles	-1506
nOne	-1507
▁element	-1508
avily	-1509
▁heavily	-1510
▁efficiency	-1511
▁perception	-1512
▁designed	-1513
rol	-1514
▁U	-1515
▁unt	-1516
ning	-1517
ctions	-1518
▁achieving	-1519
aging	-1520
▁powerful	-1521
▁dom	-1522
ows	-1523
ategor	-1524
▁adapt	-1525
▁sa	-1526
▁another	-1527
▁categor	-1528
▁wid	-1529
▁type	-1530
▁until	-1531
▁viewpoints	-1532
▁Trans	-1533
▁field	-1534
aces	-1535
▁lever	-1536
▁reliable	-1537
▁ret	-1538
▁obser	-1539
▁predicted	-1540
▁ser	-1541
▁magn	-1542
▁off	-1543
▁cap	-1544
AN	-1545
▁tum	-1546
arget	-1547
▁control	-1548
ory	-1549
phistic	-1550
▁arises	-1551
▁sophistic	-1552
▁sophisticated	-1553
▁ins	-1554
RF	-1555
rit	-1556
▁init	-1557
osing	-1558
▁detected	-1559
▁target	-1560
wards	-1561
▁descriptors	-1562
▁compression	-1563
▁alter	-1564
▁loo	-1565
▁interest	-1566
led	-1567
por	-1568
▁rese	-1569
▁ag	-1570
▁Ex	-1571
alization	-1572
▁reconstruction	-1573
▁see	-1574
▁solution	-1575
▁saf	-1576
▁three	-1577
▁face	-1578
one	-1579
▁wa	-1580
▁gu	-1581
uous	-1582
▁locations	-1583
pling	-1584
▁evalu	-1585
▁become	-1586
▁situ	-1587
ft	-1588
▁sl	-1589
▁deg	-1590
iring	-1591
▁incor	-1592
arest	-1593
▁maintaining	-1594
▁dyn	-1595
▁captures	-1596
gence	-1597
row	-1598
▁clar	-1599
fitting	-1600
).	-1601
▁moving	-1602
reen	-1603
▁call	-1604
▁V	-1605
▁towards	-1606
▁Feature	-1607
▁reduction	-1608
SA	-1609
▁histogra	-1610
▁If	-1611
▁occlusions	-1612
op	-1613
▁hom	-1614
▁At	-1615
▁line	-1616
dimensional	-1617
▁robot	-1618
▁initial	-1619
▁Int	-1620
FT	-1621
SAC	-1622
ANSAC	-1623
.\	-1624
hed	-1625
vis	-1626
▁fast	-1627
▁Transform	-1628
IFT	-1629
utions	-1630
▁produ	-1631
ancing	-1632
▁frequencies	-1633
▁eyes	-1634
▁sizes	-1635
▁called	-1636
▁known	-1637
▁computationally	-1638
▁too	-1639
▁eas	-1640
io	-1641
very	-1642
▁descent	-1643
▁area	-1644
▁diagnosis	-1645
▁rather	-1646
▁situations	-1647
▁amb	-1648
▁contour	-1649
▁vast	-1650
▁crit	-1651
▁fe	-1652
ally	-1653
ins	-1654
▁Ad	-1655
▁nois	-1656
▁onto	-1657
▁again	-1658
▁differ	-1659
▁average	-1660
▁every	-1661
▁steps	-1662
▁prom	-1663
▁requiring	-1664
▁When	-1665
▁ben	-1666
inary	-1667
▁noisy	-1668
▁abrupt	-1669
▁influence	-1670
▁want	-1671
▁surroundings	-1672
▁represented	-1673
▁many	-1674
▁against	-1675
▁operat	-1676
way	-1677
▁angle	-1678
▁outliers	-1679
▁determining	-1680
▁confused	-1681
iding	-1682
▁traffic	-1683
▁dark	-1684
▁necess	-1685
▁providing	-1686
▁domain	-1687
▁sensitivity	-1688
▁Why	-1689
▁magnitu	-1690
▁functions	-1691
plain	-1692
▁caused	-1693
▁Explain	-1694
▁numer	-1695
▁squares	-1696
orph	-1697
▁sum	-1698
▁pan	-1699
▁fail	-1700
▁navigate	-1701
vised	-1702
pervised	-1703
▁contain	-1704
▁combin	-1705
▁balance	-1706
▁picture	-1707
puter	-1708
seen	-1709
▁outc	-1710
▁unseen	-1711
▁global	-1712
ick	-1713
▁slightly	-1714
▁maj	-1715
▁prop	-1716
▁major	-1717
▁perceive	-1718
▁linear	-1719
▁changing	-1720
▁including	-1721
▁map	-1722
▁relevant	-1723
ware	-1724
ently	-1725
▁videos	-1726
erp	-1727
▁removing	-1728
CNNs	-1729
gy	-1730
igid	-1731
▁views	-1732
▁const	-1733
els	-1734
▁tool	-1735
▁clarity	-1736
▁lower	-1737
▁highlights	-1738
▁red	-1739
▁along	-1740
▁Computer	-1741
▁world	-1742
▁before	-1743
sequ	-1744
em	-1745
▁correct	-1746
▁tissue	-1747
▁she	-1748
erence	-1749
▁shadows	-1750
val	-1751
▁vect	-1752
▁pract	-1753
epend	-1754
▁measures	-1755
time	-1756
ibility	-1757
▁geometry	-1758
▁provides	-1759
anced	-1760
▁solely	-1761
ply	-1762
▁classify	-1763
▁track	-1764
▁perfect	-1765
▁simply	-1766
▁Networ	-1767
▁One	-1768
▁address	-1769
▁sat	-1770
atom	-1771
ardless	-1772
imensions	-1773
▁regardless	-1774
▁wavel	-1775
▁anatom	-1776
▁handling	-1777
▁dimensions	-1778
rad	-1779
▁layers	-1780
▁operates	-1781
▁convergence	-1782
▁structuring	-1783
▁identifies	-1784
▁enhancement	-1785
▁operation	-1786
▁group	-1787
ological	-1788
▁metrics	-1789
▁magnitude	-1790
▁highlighting	-1791
▁scales	-1792
▁limited	-1793
▁missing	-1794
▁calculate	-1795
▁focusing	-1796
▁seam	-1797
ously	-1798
▁sure	-1799
▁lik	-1800
▁bounding	-1801
▁valuable	-1802
▁stor	-1803
pite	-1804
▁down	-1805
▁parameter	-1806
▁clear	-1807
yscale	-1808
▁refine	-1809
▁projection	-1810
▁humans	-1811
ink	-1812
▁RANSAC	-1813
▁occurs	-1814
▁learns	-1815
▁clusters	-1816
▁fore	-1817
ced	-1818
pri	-1819
▁times	-1820
▁Instead	-1821
▁determines	-1822
▁fl	-1823
▁exper	-1824
▁selecting	-1825
▁efficiently	-1826
▁dynamic	-1827
▁devi	-1828
▁great	-1829
▁fit	-1830
resolution	-1831
▁cost	-1832
▁Neural	-1833
▁blurry	-1834
▁maps	-1835
▁ambig	-1836
▁combining	-1837
eriv	-1838
▁robustness	-1839
▁graph	-1840
▁matches	-1841
▁invari	-1842
▁instead	-1843
▁describe	-1844
ledge	-1845
▁av	-1846
hers	-1847
▁flow	-1848
▁creates	-1849
anted	-1850
▁presence	-1851
RI	-1852
rees	-1853
▁maxim	-1854
▁neighborhood	-1855
▁defined	-1856
▁keypoints	-1857
uth	-1858
ergy	-1859
▁unw	-1860
▁au	-1861
▁unwanted	-1862
▁navigation	-1863
lt	-1864
phas	-1865
▁sources	-1866
▁considered	-1867
GB	-1868
▁Each	-1869
▁org	-1870
▁blue	-1871
ery	-1872
▁adjustments	-1873
▁j	-1874
▁taking	-1875
ough	-1876
▁iterative	-1877
ltim	-1878
▁binary	-1879
▁att	-1880
ights	-1881
▁enhancing	-1882
▁deriv	-1883
fficient	-1884
▁panor	-1885
▁labels	-1886
ltimately	-1887
▁benef	-1888
▁improved	-1889
▁histogram	-1890
▁comparis	-1891
▁redund	-1892
osen	-1893
▁faster	-1894
▁manipulate	-1895
▁only	-1896
▁promin	-1897
ends	-1898
imilar	-1899
▁minimum	-1900
▁extracting	-1901
versely	-1902
abilities	-1903
▁ones	-1904
▁stand	-1905
ices	-1906
▁devel	-1907
▁detailed	-1908
▁knowledge	-1909
ensive	-1910
▁anatomical	-1911
▁boxes	-1912
▁develop	-1913
▁orientations	-1914
▁upd	-1915
▁somet	-1916
nal	-1917
▁stat	-1918
▁correspondences	-1919
▁stit	-1920
▁Convolutional	-1921
▁pose	-1922
▁suit	-1923
▁seamless	-1924
▁depending	-1925
cessing	-1926
▁assumpt	-1927
▁compare	-1928
▁appropri	-1929
▁chosen	-1930
▁reduces	-1931
ology	-1932
▁continuous	-1933
▁despite	-1934
▁pa	-1935
▁length	-1936
▁realistic	-1937
▁obsc	-1938
iate	-1939
▁emphas	-1940
imin	-1941
▁increasing	-1942
▁handle	-1943
▁SIFT	-1944
linear	-1945
▁clustering	-1946
▁shear	-1947
▁mem	-1948
▁ultimately	-1949
ont	-1950
▁flu	-1951
alt	-1952
▁considering	-1953
▁prog	-1954
▁highly	-1955
▁tumors	-1956
▁independ	-1957
▁calculations	-1958
requency	-1959
▁sequence	-1960
▁surfaces	-1961
▁grayscale	-1962
▁just	-1963
▁prominent	-1964
▁quick	-1965
mar	-1966
rior	-1967
▁finds	-1968
▁shifts	-1969
CNN	-1970
aches	-1971
ensity	-1972
▁tem	-1973
orphological	-1974
abl	-1975
▁An	-1976
ultane	-1977
▁final	-1978
▁needs	-1979
▁introduce	-1980
processing	-1981
▁obscure	-1982
ually	-1983
ularization	-1984
▁gr	-1985
▁greater	-1986
▁CNN	-1987
▁establ	-1988
ma	-1989
pid	-1990
▁insights	-1991
▁overfitting	-1992
▁rapid	-1993
▁bra	-1994
▁corner	-1995
▁extracted	-1996
fter	-1997
▁manipulating	-1998
▁prior	-1999
▁assess	-2000
▁phys	-2001
play	-2002
▁person	-2003
upervised	-2004
▁star	-2005
▁reality	-2006
un	-2007
ived	-2008
▁arise	-2009
▁iss	-2010
▁neighbors	-2011
▁cats	-2012
▁biases	-2013
▁depends	-2014
ilation	-2015
▁describes	-2016
omp	-2017
▁selection	-2018
▁boundary	-2019
▁soft	-2020
▁treat	-2021
chit	-2022
chitect	-2023
ca	-2024
▁divid	-2025
▁learned	-2026
▁appropriate	-2027
▁imper	-2028
▁aspects	-2029
▁improving	-2030
▁shift	-2031
me	-2032
omen	-2033
▁utilize	-2034
▁techn	-2035
▁perspectives	-2036
▁phen	-2037
▁phenomen	-2038
▁Th	-2039
ings	-2040
▁probability	-2041
▁ratio	-2042
▁internal	-2043
des	-2044
▁given	-2045
▁sensors	-2046
▁bas	-2047
▁Conversely	-2048
▁reconstruct	-2049
vent	-2050
not	-2051
▁fields	-2052
▁enables	-2053
▁architect	-2054
▁rotations	-2055
▁energy	-2056
▁'	-2057
▁easier	-2058
▁utilizes	-2059
▁separate	-2060
▁strong	-2061
▁nearest	-2062
▁individuals	-2063
▁refer	-2064
▁natural	-2065
▁achieves	-2066
▁regression	-2067
▁been	-2068
▁problem	-2069
▁compl	-2070
▁visually	-2071
▁remove	-2072
▁found	-2073
▁green	-2074
▁simultane	-2075
In	-2076
ctu	-2077
▁foreground	-2078
▁poor	-2079
▁relying	-2080
▁photographs	-2081
▁Reg	-2082
▁scan	-2083
ditionally	-2084
▁fluctu	-2085
ia	-2086
▁Ed	-2087
▁ga	-2088
▁repeat	-2089
▁constra	-2090
▁multi	-2091
▁account	-2092
▁manipulation	-2093
▁RGB	-2094
▁compos	-2095
▁norm	-2096
▁plan	-2097
▁Additionally	-2098
level	-2099
▁suitable	-2100
▁whether	-2101
ny	-2102
▁imperfect	-2103
▁z	-2104
▁perceived	-2105
▁consistency	-2106
),	-2107
▁optical	-2108
▁decision	-2109
▁backgrounds	-2110
▁stra	-2111
▁patient	-2112
▁simultaneously	-2113
▁invariance	-2114
ched	-2115
▁averaging	-2116
▁Their	-2117
▁choice	-2118
ints	-2119
▁movements	-2120
uity	-2121
▁dem	-2122
iting	-2123
▁straight	-2124
▁lights	-2125
▁phenomenon	-2126
▁acts	-2127
▁long	-2128
▁autom	-2129
▁classes	-2130
▁establish	-2131
▁resources	-2132
,"	-2133
isions	-2134
isely	-2135
▁subject	-2136
▁fal	-2137
elf	-2138
ete	-2139
▁quickly	-2140
▁existing	-2141
▁smoother	-2142
ctors	-2143
▁photos	-2144
▁homograph	-2145
see	-2146
plac	-2147
▁exc	-2148
▁altering	-2149
▁precisely	-2150
▁parall	-2151
▁processed	-2152
▁supp	-2153
▁sensitive	-2154
▁sharpening	-2155
▁solutions	-2156
▁software	-2157
gmentation	-2158
▁identified	-2159
uminance	-2160
▁fluctuations	-2161
▁stitching	-2162
▁directions	-2163
▁focal	-2164
▁consideration	-2165
ond	-2166
▁special	-2167
▁ax	-2168
▁imperfections	-2169
▁should	-2170
arc	-2171
▁combination	-2172
▁mapping	-2173
▁storage	-2174
▁wind	-2175
▁distinguishing	-2176
▁doctors	-2177
▁land	-2178
▁posit	-2179
▁contours	-2180
▁subsequ	-2181
frequency	-2182
yond	-2183
▁abs	-2184
▁beyond	-2185
▁thresholds	-2186
▁-	-2187
den	-2188
▁fol	-2189
onsist	-2190
▁experi	-2191
▁false	-2192
uration	-2193
▁depend	-2194
▁wavelength	-2195
▁happ	-2196
andsca	-2197
▁artific	-2198
▁inconsist	-2199
archers	-2200
▁Des	-2201
▁criter	-2202
iction	-2203
▁detector	-2204
▁indicating	-2205
▁effects	-2206
▁nu	-2207
▁landsca	-2208
ets	-2209
▁capable	-2210
▁calculates	-2211
▁pattern	-2212
▁leads	-2213
▁generalize	-2214
▁researchers	-2215
ism	-2216
▁advant	-2217
▁signals	-2218
▁compress	-2219
▁path	-2220
▁tissues	-2221
▁practical	-2222
mb	-2223
▁prediction	-2224
▁amounts	-2225
▁exh	-2226
▁luminance	-2227
▁ste	-2228
variant	-2229
▁chann	-2230
▁treatment	-2231
▁incorpor	-2232
▁itself	-2233
ids	-2234
▁observed	-2235
▁subsequent	-2236
▁Canny	-2237
▁grow	-2238
▁combine	-2239
▁white	-2240
▁coordinate	-2241
▁after	-2242
▁weighted	-2243
rices	-2244
▁sets	-2245
▁descriptor	-2246
▁least	-2247
alities	-2248
▁nature	-2249
▁setting	-2250
▁arr	-2251
▁problems	-2252
▁decisions	-2253
▁dimension	-2254
▁viewpoint	-2255
▁bod	-2256
▁prevent	-2257
▁precision	-2258
work	-2259
▁bloc	-2260
▁photo	-2261
▁strate	-2262
RFs	-2263
▁operator	-2264
marks	-2265
▁others	-2266
▁outputs	-2267
▁overlap	-2268
▁vectors	-2269
ene	-2270
▁convolution	-2271
▁interpretation	-2272
▁ran	-2273
▁pe	-2274
▁reflected	-2275
ource	-2276
▁regularization	-2277
like	-2278
stant	-2279
▁distorted	-2280
rect	-2281
radient	-2282
▁generate	-2283
▁Networks	-2284
▁remains	-2285
onging	-2286
▁ideal	-2287
▁belonging	-2288
▁artificial	-2289
ak	-2290
▁separating	-2291
▁enable	-2292
▁sampling	-2293
▁assigning	-2294
▁plane	-2295
▁kernels	-2296
▁calculated	-2297
ming	-2298
▁elimin	-2299
▁analyzed	-2300
▁raw	-2301
▁miscon	-2302
▁technology	-2303
▁misconception	-2304
▁pin	-2305
▁search	-2306
▁hind	-2307
▁street	-2308
▁standard	-2309
▁specialized	-2310
chan	-2311
ables	-2312
ampling	-2313
iveness	-2314
▁matrices	-2315
▁widely	-2316
ising	-2317
▁component	-2318
cut	-2319
▁cues	-2320
▁file	-2321
▁cluster	-2322
▁center	-2323
▁rotating	-2324
▁segments	-2325
▁vers	-2326
▁samples	-2327
▁exhib	-2328
▁define	-2329
▁importance	-2330
▁cross	-2331
▁follow	-2332
▁excess	-2333
▁looking	-2334
▁categories	-2335
▁confid	-2336
nH	-2337
▁hy	-2338
ancy	-2339
iform	-2340
▁outl	-2341
▁approaches	-2342
▁respon	-2343
▁progress	-2344
ex	-2345
rep	-2346
▁subs	-2347
▁Desc	-2348
▁affine	-2349
▁numerical	-2350
lation	-2351
▁Edge	-2352
▁locate	-2353
▁rest	-2354
▁Gradient	-2355
▁variance	-2356
▁dilation	-2357
angu	-2358
▁fitting	-2359
▁stu	-2360
erial	-2361
▁blending	-2362
▁analyzes	-2363
ways	-2364
osion	-2365
▁combined	-2366
▁anim	-2367
obel	-2368
▁Sobel	-2369
▁framework	-2370
mo	-2371
▁Un	-2372
▁CNNs	-2373
▁Random	-2374
▁Se	-2375
▁mer	-2376
▁erosion	-2377
rehe	-2378
▁processes	-2379
anding	-2380
▁comprehe	-2381
▁robotics	-2382
▁mechan	-2383
reting	-2384
irt	-2385
▁calib	-2386
▁aligned	-2387
ature	-2388
▁body	-2389
▁langu	-2390
▁panoram	-2391
▁simpler	-2392
▁outcomes	-2393
▁variables	-2394
ereo	-2395
▁warp	-2396
▁brain	-2397
nE	-2398
▁bro	-2399
▁landmarks	-2400
▁detectors	-2401
▁shades	-2402
▁measurements	-2403
▁safely	-2404
▁constraints	-2405
read	-2406
▁morphological	-2407
▁photography	-2408
▁interpreting	-2409
poral	-2410
▁carefully	-2411
▁sometimes	-2412
."	-2413
itig	-2414
tered	-2415
rie	-2416
▁necessit	-2417
als	-2418
▁physical	-2419
▁incorrect	-2420
▁hard	-2421
▁clut	-2422
▁mitig	-2423
▁right	-2424
▁commonly	-2425
▁anch	-2426
▁virt	-2427
ward	-2428
def	-2429
off	-2430
ierarch	-2431
▁retrie	-2432
▁variation	-2433
▁statist	-2434
▁influenc	-2435
▁language	-2436
▁rad	-2437
ogene	-2438
cond	-2439
▁del	-2440
▁dra	-2441
▁truth	-2442
▁equalization	-2443
▁ground	-2444
▁assumption	-2445
▁doesn	-2446
defined	-2447
▁converting	-2448
nHow	-2449
▁perfectly	-2450
ortion	-2451
▁pictures	-2452
▁eye	-2453
▁effectiveness	-2454
▁feed	-2455
atically	-2456
inking	-2457
▁maintain	-2458
ention	-2459
▁behavi	-2460
ored	-2461
reed	-2462
▁Rob	-2463
▁display	-2464
▁impacts	-2465
▁statistical	-2466
OL	-2467
class	-2468
ged	-2469
▁minimizes	-2470
▁criteria	-2471
ectr	-2472
OLO	-2473
ater	-2474
RB	-2475
▁squared	-2476
▁reference	-2477
▁simplifies	-2478
by	-2479
ording	-2480
▁median	-2481
▁differentiate	-2482
aint	-2483
▁likely	-2484
alth	-2485
▁dog	-2486
oriz	-2487
▁get	-2488
▁grid	-2489
ngth	-2490
fer	-2491
▁converge	-2492
▁hierarch	-2493
▁leverages	-2494
▁wavelengths	-2495
art	-2496
▁virtual	-2497
ense	-2498
▁health	-2499
▁augment	-2500
▁obscured	-2501
rigid	-2502
▁tools	-2503
▁distribut	-2504
wise	-2505
ensus	-2506
iness	-2507
▁nose	-2508
▁related	-2509
▁ambiguity	-2510
atives	-2511
▁tree	-2512
▁black	-2513
▁strateg	-2514
▁strength	-2515
▁concepts	-2516
▁Four	-2517
▁complete	-2518
▁probabilities	-2519
▁avo	-2520
▁memory	-2521
▁adv	-2522
▁bil	-2523
▁unc	-2524
▁quantify	-2525
▁comprehens	-2526
ute	-2527
▁broad	-2528
▁positives	-2529
▁bias	-2530
▁approxim	-2531
▁dividing	-2532
▁parallel	-2533
▁predicting	-2534
iples	-2535
▁pass	-2536
▁horiz	-2537
▁correction	-2538
arding	-2539
▁essence	-2540
▁hol	-2541
▁principles	-2542
▁Fourier	-2543
▁preprocessing	-2544
oise	-2545
▁outcome	-2546
ection	-2547
▁stereo	-2548
▁window	-2549
▁working	-2550
ST	-2551
▁express	-2552
▁introduces	-2553
interp	-2554
▁share	-2555
▁annot	-2556
▁arrange	-2557
▁ir	-2558
▁indicates	-2559
▁trade	-2560
▁organs	-2561
▁sharpness	-2562
▁cell	-2563
▁always	-2564
▁presented	-2565
▁expensive	-2566
▁away	-2567
▁train	-2568
▁appears	-2569
stac	-2570
▁obstac	-2571
▁defining	-2572
▁augmented	-2573
▁retrieval	-2574
▁second	-2575
▁encount	-2576
▁redundant	-2577
▁quantifies	-2578
▁comparison	-2579
▁adjustment	-2580
▁influences	-2581
▁dev	-2582
▁density	-2583
nF	-2584
▁reve	-2585
▁previ	-2586
antic	-2587
▁gaps	-2588
oses	-2589
▁sem	-2590
▁factor	-2591
▁connections	-2592
▁apply	-2593
▁still	-2594
oU	-2595
▁inconsistencies	-2596
eli	-2597
▁behavior	-2598
▁mar	-2599
▁produce	-2600
▁look	-2601
▁planning	-2602
▁flex	-2603
▁Scale	-2604
▁serve	-2605
▁Robust	-2606
means	-2607
▁dimensionality	-2608
▁Sh	-2609
▁seen	-2610
▁shared	-2611
▁landscape	-2612
for	-2613
ipal	-2614
ellig	-2615
▁Cons	-2616
ptim	-2617
▁encod	-2618
▁misinterp	-2619
connect	-2620
▁MRI	-2621
▁inform	-2622
▁stable	-2623
illions	-2624
▁overly	-2625
▁incorporating	-2626
▁Le	-2627
secut	-2628
▁consecut	-2629
ifications	-2630
oming	-2631
▁rigid	-2632
▁needed	-2633
ores	-2634
uture	-2635
▁datab	-2636
ious	-2637
ones	-2638
Invariant	-2639
arily	-2640
ily	-2641
▁adjusts	-2642
▁sk	-2643
▁wide	-2644
imilarity	-2645
▁Al	-2646
▁choosing	-2647
▁modeling	-2648
back	-2649
▁ter	-2650
elihood	-2651
▁future	-2652
▁misinterpret	-2653
▁rays	-2654
▁vert	-2655
▁operators	-2656
ub	-2657
ars	-2658
arr	-2659
ded	-2660
▁material	-2661
▁consecutive	-2662
▁Cl	-2663
▁comprehensive	-2664
ean	-2665
▁pen	-2666
▁irre	-2667
▁tumor	-2668
▁inputs	-2669
CA	-2670
▁required	-2671
▁shifting	-2672
tsu	-2673
▁downs	-2674
▁classifying	-2675
▁good	-2676
▁reflects	-2677
▁guide	-2678
▁notice	-2679
▁numerous	-2680
▁transforms	-2681
▁Mean	-2682
▁op	-2683
▁homography	-2684
nEssentially	-2685
ray	-2686
▁reach	-2687
▁sun	-2688
▁draw	-2689
▁critical	-2690
nsupervised	-2691
▁deform	-2692
▁actions	-2693
▁millions	-2694
▁fo	-2695
▁adding	-2696
▁indicate	-2697
▁sus	-2698
▁Otsu	-2699
▁confidence	-2700
▁hierarchical	-2701
irc	-2702
rins	-2703
▁neg	-2704
▁made	-2705
rinsic	-2706
▁Describ	-2707
▁happens	-2708
▁automatically	-2709
ocal	-2710
▁signs	-2711
▁degrees	-2712
▁horizont	-2713
▁few	-2714
▁warping	-2715
▁pinpoint	-2716
▁resol	-2717
▁involving	-2718
▁normalization	-2719
▁reas	-2720
▁according	-2721
▁calibration	-2722
iny	-2723
▁quest	-2724
▁isn	-2725
rays	-2726
idden	-2727
▁Describe	-2728
▁assigned	-2729
▁contains	-2730
oration	-2731
▁belong	-2732
▁exhibit	-2733
▁intellig	-2734
▁closely	-2735
▁connected	-2736
▁AI	-2737
▁source	-2738
▁necessitates	-2739
cer	-2740
use	-2741
idel	-2742
▁suc	-2743
▁slow	-2744
▁Think	-2745
▁basic	-2746
▁likelihood	-2747
DR	-2748
plic	-2749
▁near	-2750
▁predef	-2751
▁leverage	-2752
▁buildings	-2753
▁partition	-2754
▁derivative	-2755
▁interaction	-2756
▁dise	-2757
▁safe	-2758
▁build	-2759
▁success	-2760
▁seamlessly	-2761
▁integ	-2762
▁constant	-2763
▁hidden	-2764
▁pair	-2765
ading	-2766
▁To	-2767
▁beg	-2768
▁shar	-2769
▁things	-2770
ishing	-2771
▁generalization	-2772
▁must	-2773
▁healthy	-2774
▁show	-2775
ateral	-2776
▁sequences	-2777
▁reliability	-2778
ably	-2779
ximum	-2780
▁enough	-2781
ompass	-2782
▁merging	-2783
▁channels	-2784
▁encompass	-2785
▁correctly	-2786
▁matched	-2787
▁similarities	-2788
ck	-2789
▁Bl	-2790
▁trees	-2791
▁relate	-2792
▁calculation	-2793
ople	-2794
▁environmental	-2795
▁cells	-2796
▁questions	-2797
▁comes	-2798
▁Interp	-2799
▁closer	-2800
▁predefined	-2801
▁people	-2802
▁collect	-2803
ended	-2804
▁refining	-2805
ift	-2806
▁format	-2807
▁discrep	-2808
▁resizing	-2809
▁discarding	-2810
sh	-2811
jac	-2812
ximity	-2813
▁activ	-2814
▁adjac	-2815
▁finer	-2816
▁circ	-2817
▁expect	-2818
▁transm	-2819
▁deviate	-2820
▁Re	-2821
▁uniform	-2822
▁database	-2823
AST	-2824
▁organ	-2825
▁transforming	-2826
▁respect	-2827
efficient	-2828
▁priorit	-2829
▁interpretations	-2830
▁centro	-2831
▁discern	-2832
▁arrangement	-2833
▁Over	-2834
▁excel	-2835
▁adjacent	-2836
▁selectively	-2837
lier	-2838
▁val	-2839
ertaint	-2840
▁evaluating	-2841
▁resolutions	-2842
▁Non	-2843
▁issues	-2844
▁suscept	-2845
▁flat	-2846
▁observ	-2847
▁current	-2848
▁obstacles	-2849
▁proximity	-2850
▁offers	-2851
▁homogene	-2852
▁panorama	-2853
▁distributions	-2854
ted	-2855
idelity	-2856
ailable	-2857
▁groups	-2858
▁increased	-2859
▁however	-2860
▁differently	-2861
ixed	-2862
▁users	-2863
▁independent	-2864
raction	-2865
▁fidelity	-2866
▁La	-2867
▁offer	-2868
▁Neighb	-2869
▁employing	-2870
▁distinction	-2871
ero	-2872
▁visible	-2873
▁temporal	-2874
▁occlusion	-2875
▁comparisons	-2876
▁interactions	-2877
▁score	-2878
▁determined	-2879
▁visibility	-2880
▁axis	-2881
▁caus	-2882
▁curv	-2883
abeled	-2884
▁vector	-2885
▁acqu	-2886
▁issue	-2887
ample	-2888
placian	-2889
▁specifically	-2890
▁De	-2891
▁Once	-2892
▁overs	-2893
▁independently	-2894
▁terms	-2895
▁include	-2896
▁curvature	-2897
▁partially	-2898
sc	-2899
▁CT	-2900
▁freed	-2901
▁Consensus	-2902
▁freedom	-2903
nW	-2904
▁imagery	-2905
▁marking	-2906
▁gradually	-2907
▁derivatives	-2908
▁introducing	-2909
uning	-2910
▁misclass	-2911
▁semantic	-2912
▁uncertaint	-2913
irst	-2914
▁pop	-2915
nHowever	-2916
▁presents	-2917
▁combinations	-2918
DDR	-2919
izable	-2920
▁instances	-2921
▁objective	-2922
rained	-2923
▁generating	-2924
EF	-2925
RIEF	-2926
nces	-2927
▁mass	-2928
▁Interpolation	-2929
labeled	-2930
▁moves	-2931
rete	-2932
nFor	-2933
ither	-2934
▁count	-2935
▁Network	-2936
▁Laplacian	-2937
caling	-2938
▁either	-2939
anishing	-2940
▁growing	-2941
▁formation	-2942
itive	-2943
▁fill	-2944
▁architecture	-2945
ner	-2946
▁operate	-2947
▁repeated	-2948
ax	-2949
▁tre	-2950
▁increases	-2951
▁As	-2952
▁pie	-2953
▁closest	-2954
▁ORB	-2955
▁cancer	-2956
▁reduced	-2957
▁stret	-2958
▁bre	-2959
▁intensive	-2960
air	-2961
▁Rot	-2962
▁longer	-2963
▁editing	-2964
▁significance	-2965
otion	-2966
▁Segmentation	-2967
med	-2968
ood	-2969
▁estimations	-2970
▁consistently	-2971
▁devices	-2972
▁experience	-2973
arial	-2974
versarial	-2975
▁improves	-2976
▁intelligence	-2977
ides	-2978
▁eng	-2979
▁disrupt	-2980
bed	-2981
oring	-2982
▁available	-2983
▁relatively	-2984
▁transition	-2985
▁translations	-2986
▁Cont	-2987
▁minimal	-2988
▁flexibility	-2989
oting	-2990
▁diss	-2991
▁electr	-2992
▁fixed	-2993
▁serves	-2994
▁massive	-2995
▁generated	-2996
▁separates	-2997
cent	-2998
▁reliance	-2999
▁strategies	-3000
▁cut	-3001
▁FAST	-3002
▁degree	-3003
anged	-3004
▁exact	-3005
nI	-3006
▁blurred	-3007
curity	-3008
▁minima	-3009
▁penalt	-3010
▁broader	-3011
▁photogra	-3012
▁measuring	-3013
▁shr	-3014
▁radi	-3015
▁Noise	-3016
▁begins	-3017
▁starting	-3018
▁combines	-3019
▁considers	-3020
▁coefficient	-3021
▁increasingly	-3022
▁user	-3023
▁ways	-3024
▁Least	-3025
▁viewed	-3026
here	-3027
▁lack	-3028
▁mark	-3029
▁ambiguous	-3030
▁adaptive	-3031
▁security	-3032
▁compressed	-3033
▁evaluation	-3034
▁individually	-3035
URF	-3036
▁Ham	-3037
▁Hamming	-3038
▁neur	-3039
▁leveraging	-3040
ustom	-3041
▁state	-3042
▁nuanced	-3043
▁necessary	-3044
▁redundancy	-3045
▁dependencies	-3046
ap	-3047
▁sever	-3048
▁custom	-3049
▁reason	-3050
▁advantages	-3051
▁variability	-3052
ists	-3053
▁ful	-3054
▁Algorith	-3055
▁ampl	-3056
▁aiding	-3057
▁propos	-3058
▁complexities	-3059
arris	-3060
iment	-3061
▁series	-3062
▁benefits	-3063
ven	-3064
▁wider	-3065
▁computation	-3066
▁suppression	-3067
▁progressively	-3068
nC	-3069
▁were	-3070
acement	-3071
▁increase	-3072
▁optimize	-3073
▁reflections	-3074
olor	-3075
▁blocks	-3076
▁utilizing	-3077
na	-3078
▁rotate	-3079
hing	-3080
▁opening	-3081
▁adjusted	-3082
▁pedestrian	-3083
▁reflection	-3084
▁Det	-3085
▁maximum	-3086
▁enhances	-3087
▁aligns	-3088
▁previous	-3089
icit	-3090
agation	-3091
▁explicit	-3092
▁iterations	-3093
▁et	-3094
▁tiny	-3095
▁Harris	-3096
▁rotated	-3097
▁interacts	-3098
▁Sample	-3099
▁impacting	-3100
pass	-3101
▁anom	-3102
▁sear	-3103
▁take	-3104
▁expos	-3105
pos	-3106
plement	-3107
▁curves	-3108
▁clutter	-3109
acies	-3110
▁attention	-3111
▁poses	-3112
▁config	-3113
hile	-3114
▁BRIEF	-3115
▁mitigate	-3116
▁purposes	-3117
▁settings	-3118
oling	-3119
▁manif	-3120
▁involved	-3121
▁unsupervised	-3122
▁sal	-3123
▁easily	-3124
▁weak	-3125
▁Similar	-3126
▁vehicle	-3127
▁labeling	-3128
▁unlabeled	-3129
ost	-3130
▁foot	-3131
▁poorly	-3132
▁starts	-3133
▁gradual	-3134
abilistic	-3135
▁sharper	-3136
▁mechanism	-3137
prop	-3138
▁randomly	-3139
▁ris	-3140
▁implement	-3141
nWhile	-3142
▁category	-3143
▁Similarly	-3144
▁panoramic	-3145
▁layer	-3146
▁estimating	-3147
▁unre	-3148
▁absor	-3149
obs	-3150
▁close	-3151
▁extre	-3152
▁isolating	-3153
▁performing	-3154
atch	-3155
▁tend	-3156
▁mouth	-3157
▁needing	-3158
▁positioned	-3159
▁Sp	-3160
▁hyper	-3161
▁markings	-3162
▁excessive	-3163
oding	-3164
▁dict	-3165
▁grouping	-3166
▁shearing	-3167
▁Algorithms	-3168
▁additional	-3169
▁gam	-3170
maximum	-3171
▁linking	-3172
ident	-3173
▁outlines	-3174
▁spaces	-3175
▁vanishing	-3176
▁sna	-3177
▁fall	-3178
▁several	-3179
▁who	-3180
▁able	-3181
▁events	-3182
▁comprom	-3183
▁inaccuracies	-3184
Ms	-3185
go	-3186
arer	-3187
▁dispar	-3188
▁clearer	-3189
▁sliding	-3190
▁reliably	-3191
▁vertical	-3192
▁advantage	-3193
▁separation	-3194
isf	-3195
pep	-3196
▁spur	-3197
pepper	-3198
▁lenses	-3199
▁penalty	-3200
▁spurious	-3201
▁revealing	-3202
▁optimizing	-3203
▁Hom	-3204
▁bits	-3205
▁Region	-3206
▁nearby	-3207
▁photograp	-3208
▁assumptions	-3209
ble	-3210
▁mas	-3211
▁slower	-3212
▁noticeable	-3213
▁Lo	-3214
▁Pre	-3215
▁four	-3216
▁satisf	-3217
▁compact	-3218
▁unified	-3219
▁something	-3220
MS	-3221
▁clean	-3222
▁property	-3223
▁modalities	-3224
SIFT	-3225
▁Fast	-3226
▁SURF	-3227
▁hues	-3228
ersection	-3229
▁iteration	-3230
▁saturation	-3231
▁decomp	-3232
▁though	-3233
▁anchors	-3234
▁facil	-3235
▁memor	-3236
▁stands	-3237
▁expressions	-3238
▁term	-3239
ral	-3240
▁Eu	-3241
▁den	-3242
▁brighter	-3243
▁simplify	-3244
▁principal	-3245
▁sug	-3246
clide	-3247
▁post	-3248
▁scat	-3249
clidean	-3250
▁simul	-3251
▁tradeoff	-3252
LA	-3253
▁cy	-3254
yram	-3255
▁emphasizing	-3256
side	-3257
▁facilit	-3258
▁Euclidean	-3259
▁extensive	-3260
▁experiences	-3261
ring	-3262
▁integr	-3263
▁popular	-3264
▁proportion	-3265
ocu	-3266
▁stud	-3267
▁sample	-3268
▁nuances	-3269
▁irrelevant	-3270
▁reflectance	-3271
▁Features	-3272
refore	-3273
▁resemb	-3274
▁satell	-3275
▁machines	-3276
▁observations	-3277
▁axes	-3278
hoosing	-3279
▁square	-3280
▁sugges	-3281
▁ranging	-3282
▁discrete	-3283
▁practice	-3284
▁distinctions	-3285
cat	-3286
▁log	-3287
▁Local	-3288
▁steep	-3289
▁prefer	-3290
▁states	-3291
▁subset	-3292
▁updating	-3293
▁satellite	-3294
▁ranges	-3295
▁segmenting	-3296
▁IoU	-3297
▁measured	-3298
▁histograms	-3299
▁Diff	-3300
vation	-3301
▁trend	-3302
quality	-3303
▁accordingly	-3304
▁restoration	-3305
▁salt	-3306
▁overc	-3307
▁replac	-3308
▁capabilities	-3309
ubic	-3310
▁Fiel	-3311
▁docu	-3312
▁tot	-3313
▁hinder	-3314
▁removes	-3315
▁horizontal	-3316
▁stored	-3317
▁requirements	-3318
▁total	-3319
nB	-3320
lind	-3321
agged	-3322
▁Mult	-3323
▁degrad	-3324
▁dr	-3325
▁vol	-3326
ancies	-3327
▁Color	-3328
istogram	-3329
▁spect	-3330
▁Spatial	-3331
▁benefit	-3332
▁oversho	-3333
▁sufficient	-3334
▁assigns	-3335
▁footage	-3336
▁correlation	-3337
ots	-3338
usion	-3339
▁advanced	-3340
▁Intensity	-3341
▁Therefore	-3342
lar	-3343
▁ow	-3344
▁modify	-3345
▁dogs	-3346
▁explan	-3347
▁informed	-3348
▁introduced	-3349
▁Cor	-3350
▁gain	-3351
▁very	-3352
othing	-3353
▁nodes	-3354
▁affects	-3355
▁research	-3356
rop	-3357
▁own	-3358
▁top	-3359
▁abst	-3360
▁cand	-3361
iasing	-3362
▁intended	-3363
▁difficulties	-3364
nIn	-3365
▁candid	-3366
▁retain	-3367
▁crossing	-3368
▁cast	-3369
▁blend	-3370
▁fewer	-3371
▁supervised	-3372
▁development	-3373
▁influencing	-3374
rum	-3375
▁stuck	-3376
▁spectrum	-3377
▁dissimilarity	-3378
ech	-3379
▁words	-3380
▁demands	-3381
▁mon	-3382
align	-3383
mediate	-3384
▁closing	-3385
▁suppress	-3386
up	-3387
valu	-3388
▁continues	-3389
▁gl	-3390
▁updates	-3391
▁bilateral	-3392
▁diagnoses	-3393
▁PCA	-3394
▁apert	-3395
▁manage	-3396
▁removal	-3397
▁subsets	-3398
▁cancerous	-3399
ules	-3400
▁zero	-3401
▁basis	-3402
▁anomal	-3403
▁affecting	-3404
▁partitioning	-3405
▁probabilistic	-3406
scale	-3407
▁evaluate	-3408
▁equations	-3409
▁transformed	-3410
▁goes	-3411
▁retaining	-3412
▁inherently	-3413
▁homogeneous	-3414
▁version	-3415
▁Pro	-3416
inant	-3417
▁past	-3418
erences	-3419
▁anomalies	-3420
▁searching	-3421
ping	-3422
▁Under	-3423
▁applies	-3424
▁replacing	-3425
▁excessively	-3426
▁tail	-3427
▁decre	-3428
▁pyram	-3429
▁Geomet	-3430
paramet	-3431
▁emphasize	-3432
▁uncertainty	-3433
▁was	-3434
▁stems	-3435
▁curved	-3436
▁estimates	-3437
▁meet	-3438
▁test	-3439
▁hindering	-3440
▁centroids	-3441
▁downsampling	-3442
aks	-3443
ompl	-3444
▁lowest	-3445
▁outlier	-3446
▁storing	-3447
▁spl	-3448
▁Unlike	-3449
▁product	-3450
▁influenced	-3451
▁dynam	-3452
▁primarily	-3453
▁St	-3454
ographic	-3455
▁composition	-3456
ove	-3457
▁Choosing	-3458
▁scores	-3459
▁maximizing	-3460
mong	-3461
▁among	-3462
▁curve	-3463
▁Global	-3464
▁sunlight	-3465
▁Histogram	-3466
▁appealing	-3467
▁Morphological	-3468
▁encode	-3469
▁ears	-3470
▁forms	-3471
▁encour	-3472
▁Neighbor	-3473
▁segmented	-3474
▁zo	-3475
acks	-3476
▁sig	-3477
icial	-3478
ission	-3479
▁forming	-3480
▁stability	-3481
line	-3482
order	-3483
▁volum	-3484
jection	-3485
▁engine	-3486
matic	-3487
▁cause	-3488
▁vital	-3489
▁scaled	-3490
▁pooling	-3491
▁expected	-3492
▁explanation	-3493
▁architectures	-3494
▁far	-3495
▁navigating	-3496
▁distant	-3497
▁aperture	-3498
▁jagged	-3499
▁preserve	-3500
▁preferred	-3501
▁localization	-3502
▁ups	-3503
olute	-3504
trained	-3505
▁homographies	-3506
▁first	-3507
▁darker	-3508
▁feedback	-3509
▁graphics	-3510
▁deformation	-3511
.,	-3512
rical	-3513
▁Then	-3514
▁neurons	-3515
▁blobs	-3516
ud	-3517
▁main	-3518
icubic	-3519
▁stream	-3520
▁artistic	-3521
▁CRFs	-3522
▁respons	-3523
▁referred	-3524
ptimal	-3525
▁screen	-3526
▁transmission	-3527
icate	-3528
▁brid	-3529
▁sense	-3530
▁causing	-3531
▁modifying	-3532
▁detections	-3533
▁lane	-3534
▁below	-3535
propagation	-3536
▁beneficial	-3537
▁experiment	-3538
empt	-3539
▁exposure	-3540
▁misalign	-3541
▁above	-3542
isition	-3543
▁robots	-3544
▁prioritize	-3545
▁acquisition	-3546
▁discrepancies	-3547
het	-3548
▁surve	-3549
connected	-3550
▁adversarial	-3551
acr	-3552
▁hue	-3553
▁osc	-3554
ption	-3555
▁sacr	-3556
▁Vision	-3557
▁oscill	-3558
▁update	-3559
▁sacrific	-3560
▁steepest	-3561
▁compromising	-3562
▁gray	-3563
▁central	-3564
supervised	-3565
▁city	-3566
▁enlar	-3567
▁anchor	-3568
▁smooths	-3569
▁connecting	-3570
▁stretching	-3571
norm	-3572
Scale	-3573
▁Vari	-3574
changed	-3575
▁misident	-3576
▁negative	-3577
ersity	-3578
▁proves	-3579
▁patches	-3580
▁quantization	-3581
old	-3582
rient	-3583
▁cases	-3584
▁Motion	-3585
▁static	-3586
▁dictates	-3587
▁blurriness	-3588
▁attempt	-3589
▁reasoning	-3590
▁struggles	-3591
▁unchanged	-3592
▁eliminating	-3593
▁clou	-3594
▁Multi	-3595
optimal	-3596
▁diagnose	-3597
▁examining	-3598
▁otherwise	-3599
▁divide	-3600
▁eliminate	-3601
ads	-3602
isms	-3603
▁projections	-3604
alog	-3605
▁Bil	-3606
▁Nearest	-3607
▁subjective	-3608
▁hist	-3609
▁und	-3610
▁sent	-3611
idance	-3612
▁deviation	-3613
▁annotations	-3614
▁embed	-3615
ortions	-3616
▁channel	-3617
▁overcome	-3618
EG	-3619
PEG	-3620
idual	-3621
tering	-3622
▁shadow	-3623
▁bilinear	-3624
kers	-3625
▁diversity	-3626
▁classified	-3627
arrow	-3628
▁susceptible	-3629
▁overshooting	-3630
▁interconnected	-3631
oising	-3632
▁hardware	-3633
▁response	-3634
▁activation	-3635
aw	-3636
▁valle	-3637
forward	-3638
illance	-3639
▁filling	-3640
▁performs	-3641
▁localized	-3642
▁minimization	-3643
▁rapidly	-3644
▁abnorm	-3645
▁tuning	-3646
▁reaches	-3647
▁absolute	-3648
ok	-3649
isual	-3650
▁preventing	-3651
▁yet	-3652
ov	-3653
atic	-3654
▁minor	-3655
▁templ	-3656
▁cylind	-3657
▁satisfact	-3658
▁conceptual	-3659
▁deformations	-3660
▁photographers	-3661
ll	-3662
▁Geometric	-3663
ety	-3664
onal	-3665
▁teach	-3666
▁customer	-3667
▁encoding	-3668
▁interplay	-3669
▁Shift	-3670
▁aiming	-3671
▁controls	-3672
▁surveillance	-3673
▁simplification	-3674
▁mim	-3675
▁wal	-3676
▁rece	-3677
▁whis	-3678
▁rates	-3679
riented	-3680
volving	-3681
▁getting	-3682
▁assuming	-3683
▁simplified	-3684
of	-3685
ope	-3686
ros	-3687
▁monit	-3688
▁expands	-3689
▁interpol	-3690
▁band	-3691
▁risk	-3692
▁Fields	-3693
▁narrow	-3694
▁whiskers	-3695
▁balancing	-3696
▁Dist	-3697
▁explore	-3698
▁denoising	-3699
inks	-3700
▁aren	-3701
▁centers	-3702
▁traject	-3703
▁inference	-3704
connectivity	-3705
▁abnormalities	-3706
▁ru	-3707
odal	-3708
bject	-3709
struct	-3710
▁gap	-3711
▁Optim	-3712
▁rules	-3713
▁undergo	-3714
raft	-3715
▁aud	-3716
▁Pixel	-3717
▁averages	-3718
▁electrical	-3719
▁encountered	-3720
▁fr	-3721
over	-3722
▁mom	-3723
▁ric	-3724
ctive	-3725
▁recur	-3726
▁richer	-3727
▁whereas	-3728
▁addressing	-3729
making	-3730
▁Threshol	-3731
▁avoiding	-3732
▁suboptimal	-3733
▁losing	-3734
▁helping	-3735
▁problematic	-3736
esp	-3737
▁analog	-3738
▁spread	-3739
▁trends	-3740
ouse	-3741
▁Dat	-3742
▁lossy	-3743
▁morph	-3744
▁compens	-3745
▁defines	-3746
▁numbers	-3747
▁mechanisms	-3748
▁repeatedly	-3749
▁Visual	-3750
istration	-3751
▁cluttered	-3752
▁smoothness	-3753
ibr	-3754
▁block	-3755
▁expert	-3756
▁straightforward	-3757
▁rect	-3758
▁normal	-3759
▁translate	-3760
▁compressing	-3761
▁short	-3762
▁encompasses	-3763
▁mount	-3764
▁Object	-3765
▁interf	-3766
▁mismat	-3767
▁dynamically	-3768
▁registering	-3769
▁lost	-3770
▁formul	-3771
▁disparity	-3772
mark	-3773
▁etc	-3774
▁full	-3775
▁stri	-3776
▁Analy	-3777
▁	-3778
e	-3779
i	-3780
t	-3781
n	-3782
a	-3783
s	-3784
o	-3785
r	-3786
c	-3787
l	-3788
h	-3789
d	-3790
g	-3791
m	-3792
u	-3793
p	-3794
f	-3795
y	-3796
b	-3797
v	-3798
w	-3799
,	-3800
.	-3801
k	-3802
x	-3803
T	-3804
j	-3805
z	-3806
q	-3807
I	-3808
'	-3809
?	-3810
-	-3811
F	-3812
C	-3813
A	-3814
\	-3815
N	-3816
H	-3817
S	-3818
"	-3819
W	-3820
R	-3821
B	-3822
D	-3823
(	-3824
)	-3825
E	-3826
O	-3827
M	-3828
G	-3829
L	-3830
P	-3831
3	-3832
;	-3833
U	-3834
–	-3835
V	-3836
