<unk>	0
<s>	0
</s>	0
<0x00>	0
<0x01>	0
<0x02>	0
<0x03>	0
<0x04>	0
<0x05>	0
<0x06>	0
<0x07>	0
<0x08>	0
<0x09>	0
<0x0A>	0
<0x0B>	0
<0x0C>	0
<0x0D>	0
<0x0E>	0
<0x0F>	0
<0x10>	0
<0x11>	0
<0x12>	0
<0x13>	0
<0x14>	0
<0x15>	0
<0x16>	0
<0x17>	0
<0x18>	0
<0x19>	0
<0x1A>	0
<0x1B>	0
<0x1C>	0
<0x1D>	0
<0x1E>	0
<0x1F>	0
<0x20>	0
<0x21>	0
<0x22>	0
<0x23>	0
<0x24>	0
<0x25>	0
<0x26>	0
<0x27>	0
<0x28>	0
<0x29>	0
<0x2A>	0
<0x2B>	0
<0x2C>	0
<0x2D>	0
<0x2E>	0
<0x2F>	0
<0x30>	0
<0x31>	0
<0x32>	0
<0x33>	0
<0x34>	0
<0x35>	0
<0x36>	0
<0x37>	0
<0x38>	0
<0x39>	0
<0x3A>	0
<0x3B>	0
<0x3C>	0
<0x3D>	0
<0x3E>	0
<0x3F>	0
<0x40>	0
<0x41>	0
<0x42>	0
<0x43>	0
<0x44>	0
<0x45>	0
<0x46>	0
<0x47>	0
<0x48>	0
<0x49>	0
<0x4A>	0
<0x4B>	0
<0x4C>	0
<0x4D>	0
<0x4E>	0
<0x4F>	0
<0x50>	0
<0x51>	0
<0x52>	0
<0x53>	0
<0x54>	0
<0x55>	0
<0x56>	0
<0x57>	0
<0x58>	0
<0x59>	0
<0x5A>	0
<0x5B>	0
<0x5C>	0
<0x5D>	0
<0x5E>	0
<0x5F>	0
<0x60>	0
<0x61>	0
<0x62>	0
<0x63>	0
<0x64>	0
<0x65>	0
<0x66>	0
<0x67>	0
<0x68>	0
<0x69>	0
<0x6A>	0
<0x6B>	0
<0x6C>	0
<0x6D>	0
<0x6E>	0
<0x6F>	0
<0x70>	0
<0x71>	0
<0x72>	0
<0x73>	0
<0x74>	0
<0x75>	0
<0x76>	0
<0x77>	0
<0x78>	0
<0x79>	0
<0x7A>	0
<0x7B>	0
<0x7C>	0
<0x7D>	0
<0x7E>	0
<0x7F>	0
<0x80>	0
<0x81>	0
<0x82>	0
<0x83>	0
<0x84>	0
<0x85>	0
<0x86>	0
<0x87>	0
<0x88>	0
<0x89>	0
<0x8A>	0
<0x8B>	0
<0x8C>	0
<0x8D>	0
<0x8E>	0
<0x8F>	0
<0x90>	0
<0x91>	0
<0x92>	0
<0x93>	0
<0x94>	0
<0x95>	0
<0x96>	0
<0x97>	0
<0x98>	0
<0x99>	0
<0x9A>	0
<0x9B>	0
<0x9C>	0
<0x9D>	0
<0x9E>	0
<0x9F>	0
<0xA0>	0
<0xA1>	0
<0xA2>	0
<0xA3>	0
<0xA4>	0
<0xA5>	0
<0xA6>	0
<0xA7>	0
<0xA8>	0
<0xA9>	0
<0xAA>	0
<0xAB>	0
<0xAC>	0
<0xAD>	0
<0xAE>	0
<0xAF>	0
<0xB0>	0
<0xB1>	0
<0xB2>	0
<0xB3>	0
<0xB4>	0
<0xB5>	0
<0xB6>	0
<0xB7>	0
<0xB8>	0
<0xB9>	0
<0xBA>	0
<0xBB>	0
<0xBC>	0
<0xBD>	0
<0xBE>	0
<0xBF>	0
<0xC0>	0
<0xC1>	0
<0xC2>	0
<0xC3>	0
<0xC4>	0
<0xC5>	0
<0xC6>	0
<0xC7>	0
<0xC8>	0
<0xC9>	0
<0xCA>	0
<0xCB>	0
<0xCC>	0
<0xCD>	0
<0xCE>	0
<0xCF>	0
<0xD0>	0
<0xD1>	0
<0xD2>	0
<0xD3>	0
<0xD4>	0
<0xD5>	0
<0xD6>	0
<0xD7>	0
<0xD8>	0
<0xD9>	0
<0xDA>	0
<0xDB>	0
<0xDC>	0
<0xDD>	0
<0xDE>	0
<0xDF>	0
<0xE0>	0
<0xE1>	0
<0xE2>	0
<0xE3>	0
<0xE4>	0
<0xE5>	0
<0xE6>	0
<0xE7>	0
<0xE8>	0
<0xE9>	0
<0xEA>	0
<0xEB>	0
<0xEC>	0
<0xED>	0
<0xEE>	0
<0xEF>	0
<0xF0>	0
<0xF1>	0
<0xF2>	0
<0xF3>	0
<0xF4>	0
<0xF5>	0
<0xF6>	0
<0xF7>	0
<0xF8>	0
<0xF9>	0
<0xFA>	0
<0xFB>	0
<0xFC>	0
<0xFD>	0
<0xFE>	0
<0xFF>	0
in	-0
▁t	-1
▁a	-2
re	-3
on	-4
at	-5
he	-6
▁c	-7
es	-8
ing	-9
en	-10
ion	-11
er	-12
is	-13
▁s	-14
or	-15
al	-16
▁the	-17
it	-18
▁p	-19
▁o	-20
▁d	-21
an	-22
▁in	-23
ct	-24
im	-25
▁an	-26
▁f	-27
▁b	-28
▁m	-29
▁w	-30
ed	-31
▁re	-32
ar	-33
ro	-34
ation	-35
ent	-36
ic	-37
▁to	-38
le	-39
ag	-40
▁of	-41
▁and	-42
▁im	-43
et	-44
om	-45
if	-46
▁imag	-47
ig	-48
▁l	-49
ect	-50
el	-51
▁v	-52
us	-53
ut	-54
res	-55
▁e	-56
as	-57
▁T	-58
▁com	-59
▁th	-60
ith	-61
ur	-62
ce	-63
ch	-64
▁is	-65
ly	-66
▁comp	-67
id	-68
un	-69
ow	-70
ul	-71
▁image	-72
st	-73
ra	-74
il	-75
igh	-76
▁al	-77
iv	-78
ol	-79
▁with	-80
ess	-81
▁n	-82
▁con	-83
ations	-84
ist	-85
▁pro	-86
ject	-87
▁ob	-88
▁h	-89
ter	-90
▁or	-91
▁on	-92
se	-93
qu	-94
his	-95
▁for	-96
▁object	-97
▁vis	-98
ial	-99
▁it	-100
ight	-101
▁This	-102
▁be	-103
ke	-104
ment	-105
▁us	-106
▁mo	-107
und	-108
▁that	-109
ate	-110
pp	-111
pt	-112
ance	-113
ity	-114
ions	-115
▁whe	-116
▁can	-117
▁g	-118
iz	-119
orm	-120
▁comput	-121
▁po	-122
▁det	-123
▁li	-124
ers	-125
▁images	-126
ures	-127
▁as	-128
▁The	-129
form	-130
am	-131
ure	-132
ding	-133
▁ac	-134
▁app	-135
▁dat	-136
cess	-137
ens	-138
ren	-139
ific	-140
eat	-141
▁by	-142
▁ch	-143
ans	-144
ver	-145
ir	-146
▁le	-147
▁like	-148
▁st	-149
etw	-150
ign	-151
▁I	-152
iff	-153
▁vision	-154
ab	-155
▁diff	-156
▁feat	-157
ac	-158
▁sc	-159
▁process	-160
ies	-161
▁ex	-162
▁id	-163
og	-164
▁int	-165
ix	-166
▁sp	-167
ru	-168
▁are	-169
cur	-170
▁computer	-171
▁within	-172
▁ma	-173
ify	-174
▁de	-175
▁wh	-176
ot	-177
▁te	-178
ical	-179
ine	-180
eren	-181
▁ident	-182
ant	-183
ts	-184
ixel	-185
▁pixel	-186
▁F	-187
ges	-188
ms	-189
ive	-190
▁se	-191
▁dist	-192
ff	-193
ip	-194
▁differen	-195
▁data	-196
gor	-197
een	-198
rom	-199
▁W	-200
etween	-201
ely	-202
▁between	-203
ual	-204
▁sh	-205
her	-206
ari	-207
▁su	-208
ge	-209
resent	-210
▁from	-211
▁tr	-212
ve	-213
gorith	-214
▁where	-215
▁algorith	-216
▁rep	-217
▁identify	-218
▁objects	-219
ach	-220
▁features	-221
▁accur	-222
all	-223
▁Wh	-224
▁all	-225
▁rel	-226
ition	-227
red	-228
oc	-229
▁their	-230
act	-231
▁detect	-232
▁en	-233
▁cont	-234
aly	-235
▁ne	-236
▁represent	-237
▁ro	-238
▁analy	-239
▁For	-240
▁inst	-241
ks	-242
▁ed	-243
▁\	-244
▁trans	-245
▁H	-246
▁rec	-247
vol	-248
ri	-249
ain	-250
ec	-251
▁different	-252
pl	-253
os	-254
▁its	-255
▁reg	-256
ult	-257
▁ca	-258
▁A	-259
iqu	-260
▁vari	-261
▁these	-262
▁instance	-263
ors	-264
ds	-265
▁this	-266
um	-267
▁allow	-268
▁mod	-269
▁tra	-270
chn	-271
▁par	-272
alu	-273
ased	-274
▁eff	-275
ction	-276
▁techn	-277
formation	-278
▁und	-279
per	-280
ient	-281
▁me	-282
▁How	-283
▁under	-284
ise	-285
▁cl	-286
ous	-287
▁spec	-288
▁used	-289
ogn	-290
ves	-291
▁sign	-292
▁scen	-293
▁model	-294
▁poin	-295
▁light	-296
▁recogn	-297
▁techniqu	-298
ential	-299
▁algorithms	-300
▁appl	-301
▁res	-302
▁sim	-303
ile	-304
▁mat	-305
▁comple	-306
▁valu	-307
ces	-308
ating	-309
ss	-310
▁invol	-311
ust	-312
▁do	-313
▁pat	-314
▁specific	-315
▁imp	-316
and	-317
▁complex	-318
ie	-319
▁What	-320
ste	-321
▁when	-322
▁chan	-323
▁based	-324
▁ref	-325
ize	-326
ns	-327
king	-328
▁lear	-329
▁sha	-330
▁ab	-331
▁over	-332
est	-333
▁co	-334
▁col	-335
▁tas	-336
▁per	-337
▁cor	-338
▁sy	-339
▁edges	-340
xt	-341
▁ad	-342
▁visual	-343
▁each	-344
ho	-345
▁no	-346
▁y	-347
ther	-348
▁inter	-349
▁met	-350
▁syste	-351
▁information	-352
▁un	-353
▁learn	-354
▁detection	-355
▁des	-356
ail	-357
▁capt	-358
▁underst	-359
ich	-360
▁more	-361
▁C	-362
ou	-363
▁patter	-364
▁which	-365
▁analyz	-366
ph	-367
▁applic	-368
ay	-369
round	-370
▁signific	-371
▁pixels	-372
gment	-373
▁he	-374
▁involves	-375
▁tasks	-376
able	-377
ort	-378
mo	-379
▁cons	-380
▁significant	-381
▁effect	-382
du	-383
ary	-384
▁patterns	-385
cial	-386
ass	-387
ad	-388
▁cru	-389
▁them	-390
▁crucial	-391
▁such	-392
ution	-393
▁r	-394
itions	-395
▁intens	-396
ining	-397
▁high	-398
▁using	-399
▁fil	-400
▁allows	-401
▁In	-402
ments	-403
▁ev	-404
▁recognition	-405
ide	-406
▁points	-407
ross	-408
ple	-409
▁out	-410
uring	-411
▁we	-412
ively	-413
▁It	-414
ful	-415
ric	-416
▁noise	-417
▁cre	-418
▁how	-419
▁B	-420
▁metho	-421
ates	-422
ility	-423
▁segment	-424
ict	-425
▁into	-426
▁while	-427
▁stru	-428
▁(	-429
rib	-430
▁other	-431
▁detail	-432
▁bl	-433
▁you	-434
▁values	-435
▁does	-436
iple	-437
out	-438
enc	-439
▁fin	-440
ps	-441
les	-442
ated	-443
ving	-444
▁shap	-445
▁color	-446
▁might	-447
ately	-448
allen	-449
▁challen	-450
▁across	-451
▁appro	-452
▁S	-453
▁ind	-454
▁filter	-455
aling	-456
▁ar	-457
put	-458
▁bec	-459
▁identifying	-460
▁bo	-461
▁gra	-462
▁These	-463
anding	-464
ten	-465
▁processing	-466
uld	-467
istic	-468
▁pre	-469
▁pr	-470
▁at	-471
▁pos	-472
▁E	-473
oth	-474
▁loc	-475
ire	-476
ue	-477
▁text	-478
ular	-479
age	-480
hip	-481
▁transform	-482
▁relations	-483
sis	-484
▁relationship	-485
mon	-486
aset	-487
▁scene	-488
▁inc	-489
cept	-490
▁pred	-491
pect	-492
our	-493
▁real	-494
ilar	-495
▁part	-496
▁mult	-497
ence	-498
▁dataset	-499
▁cam	-500
▁changes	-501
▁align	-502
▁ext	-503
aus	-504
rou	-505
▁analysis	-506
ose	-507
▁understanding	-508
▁often	-509
▁camer	-510
ast	-511
▁hel	-512
▁ph	-513
ress	-514
▁exam	-515
▁even	-516
▁k	-517
▁techniques	-518
entially	-519
▁learning	-520
ness	-521
▁med	-522
ace	-523
yp	-524
pon	-525
ever	-526
▁capture	-527
▁struct	-528
▁technique	-529
ogra	-530
▁common	-531
▁intensity	-532
▁accurately	-533
▁regions	-534
▁accurate	-535
▁sur	-536
vel	-537
▁R	-538
gh	-539
▁variations	-540
▁class	-541
▁oper	-542
izing	-543
▁use	-544
nT	-545
chie	-546
▁qu	-547
ib	-548
▁ass	-549
▁similar	-550
▁sub	-551
▁achie	-552
▁feature	-553
▁algorithm	-554
▁man	-555
ative	-556
ization	-557
▁various	-558
▁cal	-559
▁opt	-560
acy	-561
▁segmentation	-562
▁interp	-563
lying	-564
▁ele	-565
▁extra	-566
▁"	-567
▁ha	-568
ting	-569
▁approach	-570
▁multiple	-571
▁pl	-572
▁wor	-573
▁predict	-574
▁By	-575
ill	-576
▁requ	-577
ities	-578
▁perform	-579
▁accuracy	-580
▁rob	-581
▁medical	-582
ined	-583
erm	-584
▁distin	-585
▁However	-586
▁br	-587
▁redu	-588
▁fac	-589
▁refers	-590
▁if	-591
cul	-592
▁ess	-593
▁applications	-594
ivid	-595
lu	-596
omet	-597
ack	-598
▁bound	-599
▁calcul	-600
▁min	-601
▁pot	-602
light	-603
▁partic	-604
▁foc	-605
respon	-606
▁effectively	-607
▁systems	-608
just	-609
▁phot	-610
▁lea	-611
▁correspon	-612
▁training	-613
▁system	-614
▁transformations	-615
▁throu	-616
pen	-617
▁ke	-618
▁car	-619
▁particular	-620
▁then	-621
▁rot	-622
iew	-623
▁through	-624
▁desc	-625
ines	-626
▁typ	-627
▁analyzing	-628
lect	-629
▁relationships	-630
ency	-631
▁distinct	-632
ider	-633
▁determ	-634
▁details	-635
imit	-636
▁optim	-637
ighb	-638
▁minim	-639
▁so	-640
▁cond	-641
▁lighting	-642
▁tw	-643
▁em	-644
etwor	-645
tain	-646
▁example	-647
▁view	-648
▁est	-649
▁aim	-650
ause	-651
▁making	-652
▁grad	-653
amet	-654
▁because	-655
▁edge	-656
▁sens	-657
av	-658
▁limit	-659
▁Im	-660
▁camera	-661
ching	-662
▁methods	-663
▁two	-664
▁dis	-665
ret	-666
▁imaging	-667
▁impro	-668
ration	-669
mat	-670
ved	-671
ging	-672
▁enh	-673
▁ens	-674
▁effic	-675
ividual	-676
▁conditions	-677
▁individual	-678
ied	-679
▁have	-680
▁char	-681
▁they	-682
▁focus	-683
▁point	-684
▁charact	-685
ell	-686
▁allowing	-687
▁paramet	-688
▁fun	-689
▁models	-690
▁mean	-691
▁neighb	-692
▁consider	-693
ural	-694
▁distort	-695
ification	-696
▁leading	-697
▁pers	-698
ograph	-699
hol	-700
ale	-701
ling	-702
▁lar	-703
ould	-704
reshol	-705
▁robust	-706
▁adjust	-707
▁character	-708
▁blur	-709
▁act	-710
▁particularly	-711
▁gradient	-712
de	-713
▁sm	-714
▁O	-715
▁about	-716
▁application	-717
▁need	-718
▁datasets	-719
▁dealing	-720
▁representation	-721
▁bright	-722
▁shape	-723
▁mis	-724
▁size	-725
▁gen	-726
▁due	-727
▁dire	-728
▁D	-729
eomet	-730
oin	-731
ome	-732
▁smo	-733
▁prov	-734
ational	-735
▁position	-736
th	-737
▁threshol	-738
▁input	-739
▁create	-740
▁regist	-741
▁textures	-742
▁go	-743
requ	-744
ish	-745
▁result	-746
▁helps	-747
ld	-748
▁networ	-749
▁small	-750
▁M	-751
▁estim	-752
atial	-753
▁areas	-754
▁shar	-755
now	-756
▁set	-757
ality	-758
riv	-759
ically	-760
aries	-761
▁G	-762
▁performance	-763
▁prec	-764
▁key	-765
rent	-766
▁overall	-767
olution	-768
▁gener	-769
▁comb	-770
▁N	-771
▁fact	-772
ground	-773
▁geomet	-774
▁challenge	-775
▁appe	-776
▁scenes	-777
▁spatial	-778
abel	-779
▁parameters	-780
ram	-781
▁characteristic	-782
wor	-783
▁move	-784
NN	-785
▁relies	-786
▁boundaries	-787
▁neighbor	-788
anc	-789
▁ability	-790
▁know	-791
▁enab	-792
riving	-793
▁registration	-794
▁elements	-795
▁corn	-796
agn	-797
hemat	-798
▁computational	-799
▁characteristics	-800
▁mathemat	-801
ian	-802
▁would	-803
▁analyze	-804
▁er	-805
ower	-806
▁prim	-807
▁sam	-808
▁oc	-809
vir	-810
viron	-811
▁environ	-812
nThe	-813
ore	-814
▁aff	-815
▁pres	-816
▁but	-817
▁method	-818
inc	-819
▁lies	-820
▁both	-821
▁value	-822
▁ang	-823
▁brightness	-824
▁perspect	-825
▁distance	-826
▁back	-827
▁level	-828
▁potential	-829
▁extract	-830
▁corresponding	-831
▁smooth	-832
ys	-833
par	-834
ext	-835
imens	-836
ances	-837
▁meas	-838
▁vide	-839
od	-840
▁num	-841
▁significantly	-842
▁shapes	-843
▁those	-844
▁orient	-845
ipul	-846
▁manipul	-847
▁hand	-848
▁subt	-849
▁prob	-850
▁understand	-851
get	-852
▁role	-853
▁concept	-854
▁aims	-855
▁function	-856
▁appear	-857
▁label	-858
mental	-859
▁impact	-860
ern	-861
ime	-862
▁While	-863
nA	-864
ne	-865
▁vary	-866
▁frequ	-867
▁trac	-868
▁consist	-869
▁transformation	-870
▁mathematical	-871
ability	-872
▁interpret	-873
▁efficient	-874
▁structure	-875
▁lead	-876
izes	-877
▁compa	-878
▁matching	-879
▁art	-880
ults	-881
▁could	-882
▁mach	-883
▁what	-884
▁results	-885
▁context	-886
▁compar	-887
▁local	-888
ression	-889
hes	-890
li	-891
plo	-892
▁applying	-893
▁princ	-894
▁surround	-895
iel	-896
ong	-897
▁without	-898
▁contain	-899
▁highlight	-900
▁surrounding	-901
▁L	-902
ind	-903
ized	-904
▁may	-905
▁imagine	-906
herent	-907
▁They	-908
ard	-909
rast	-910
volution	-911
▁requi	-912
kes	-913
▁meaning	-914
▁import	-915
ital	-916
▁factors	-917
▁play	-918
▁enhance	-919
▁subtle	-920
▁fram	-921
ible	-922
▁pur	-923
▁ste	-924
▁goal	-925
itional	-926
▁facial	-927
▁relative	-928
▁finding	-929
▁Why	-930
▁primary	-931
inal	-932
ingu	-933
▁inf	-934
▁change	-935
ribut	-936
▁ta	-937
▁background	-938
umin	-939
▁aut	-940
▁inherent	-941
▁err	-942
ord	-943
▁transl	-944
▁dig	-945
▁ra	-946
▁distingu	-947
▁new	-948
▁Imag	-949
elf	-950
▁varying	-951
ob	-952
▁differences	-953
▁machine	-954
world	-955
ditional	-956
rest	-957
▁def	-958
▁bu	-959
uster	-960
▁large	-961
▁Con	-962
▁than	-963
▁photograph	-964
▁orig	-965
▁corners	-966
▁Imagine	-967
hen	-968
unda	-969
undamental	-970
▁affect	-971
▁fundamental	-972
▁operations	-973
ree	-974
▁blurr	-975
▁distinguish	-976
▁perspective	-977
▁enabling	-978
▁line	-979
▁buil	-980
▁captured	-981
▁P	-982
▁emplo	-983
▁computers	-984
cl	-985
▁fiel	-986
▁original	-987
pth	-988
▁depen	-989
▁resulting	-990
pping	-991
itu	-992
pert	-993
▁means	-994
▁contrast	-995
plain	-996
▁help	-997
▁reflect	-998
▁creating	-999
▁during	-1000
▁rotation	-1001
▁purp	-1002
▁sharp	-1003
▁determine	-1004
▁digital	-1005
▁reli	-1006
▁cluster	-1007
ception	-1008
▁geometric	-1009
▁surf	-1010
▁applied	-1011
ents	-1012
▁improve	-1013
▁any	-1014
▁ill	-1015
▁filters	-1016
▁quality	-1017
▁core	-1018
▁hum	-1019
▁disc	-1020
▁space	-1021
▁makes	-1022
ite	-1023
olog	-1024
▁design	-1025
▁requires	-1026
▁difference	-1027
ript	-1028
▁iter	-1029
▁ut	-1030
▁compon	-1031
▁representing	-1032
unt	-1033
▁preser	-1034
▁depth	-1035
ying	-1036
▁capturing	-1037
▁not	-1038
▁remo	-1039
poin	-1040
▁util	-1041
ences	-1042
▁present	-1043
▁useful	-1044
▁essentially	-1045
▁sing	-1046
▁colors	-1047
▁dec	-1048
▁orientation	-1049
ues	-1050
▁important	-1051
▁descript	-1052
avig	-1053
▁navig	-1054
▁weight	-1055
▁single	-1056
ordin	-1057
▁cars	-1058
▁provid	-1059
▁scaling	-1060
▁recognize	-1061
▁texture	-1062
▁alignment	-1063
ernel	-1064
xim	-1065
▁make	-1066
▁signal	-1067
▁separ	-1068
▁essential	-1069
▁Ex	-1070
con	-1071
▁complexity	-1072
nThis	-1073
▁filtering	-1074
ifies	-1075
imension	-1076
▁coordin	-1077
▁find	-1078
▁obs	-1079
less	-1080
▁scans	-1081
stru	-1082
▁angles	-1083
▁scenari	-1084
ract	-1085
▁representations	-1086
nect	-1087
▁precise	-1088
are	-1089
▁direct	-1090
▁positions	-1091
▁overl	-1092
ange	-1093
▁exp	-1094
▁lines	-1095
▁kernel	-1096
▁influ	-1097
accur	-1098
vant	-1099
▁output	-1100
co	-1101
▁consistent	-1102
ark	-1103
▁optimal	-1104
omes	-1105
▁video	-1106
▁inaccur	-1107
▁form	-1108
▁scale	-1109
▁interact	-1110
▁simpl	-1111
▁challenges	-1112
▁lens	-1113
cing	-1114
ber	-1115
▁purpose	-1116
gth	-1117
▁classification	-1118
▁ent	-1119
▁principle	-1120
▁extraction	-1121
▁rem	-1122
▁Explain	-1123
▁represents	-1124
iss	-1125
andom	-1126
encies	-1127
▁comparing	-1128
▁di	-1129
other	-1130
▁power	-1131
▁scenarios	-1132
▁conver	-1133
rodu	-1134
▁neural	-1135
▁compared	-1136
▁time	-1137
▁predictions	-1138
ially	-1139
▁structures	-1140
onom	-1141
▁main	-1142
▁location	-1143
ice	-1144
ision	-1145
ics	-1146
▁well	-1147
icult	-1148
▁achieve	-1149
▁difficult	-1150
▁around	-1151
ep	-1152
avi	-1153
▁there	-1154
ertain	-1155
ssentially	-1156
volutional	-1157
olation	-1158
▁intensities	-1159
ffic	-1160
ives	-1161
▁shif	-1162
▁building	-1163
▁squ	-1164
▁diagn	-1165
▁beh	-1166
▁propert	-1167
eed	-1168
▁project	-1169
▁simple	-1170
▁meaningful	-1171
▁tracking	-1172
itting	-1173
▁region	-1174
▁overla	-1175
▁gradients	-1176
▁div	-1177
▁sensor	-1178
▁aspect	-1179
▁neighboring	-1180
▁describ	-1181
▁illumin	-1182
▁inclu	-1183
▁typically	-1184
ired	-1185
▁incre	-1186
te	-1187
▁way	-1188
▁networks	-1189
▁aver	-1190
reat	-1191
▁corre	-1192
▁isol	-1193
▁low	-1194
oci	-1195
▁ide	-1196
▁rat	-1197
onomous	-1198
▁contribut	-1199
▁threshold	-1200
▁measure	-1201
▁perce	-1202
▁introdu	-1203
▁containing	-1204
oss	-1205
▁general	-1206
▁employ	-1207
▁cameras	-1208
▁recon	-1209
▁network	-1210
ier	-1211
▁autonomous	-1212
▁has	-1213
▁self	-1214
▁u	-1215
▁reconstru	-1216
cale	-1217
ples	-1218
▁calculating	-1219
ane	-1220
ribution	-1221
esp	-1222
▁rely	-1223
auss	-1224
edest	-1225
edestri	-1226
▁remain	-1227
▁achieved	-1228
▁inte	-1229
▁metric	-1230
ique	-1231
▁some	-1232
aussian	-1233
▁one	-1234
▁select	-1235
▁–	-1236
▁amo	-1237
▁shad	-1238
▁occur	-1239
▁Image	-1240
▁movement	-1241
▁fl	-1242
mb	-1243
▁same	-1244
▁pedestri	-1245
ger	-1246
▁levels	-1247
▁unique	-1248
▁Gaussian	-1249
ands	-1250
▁fur	-1251
▁number	-1252
▁non	-1253
▁inaccurate	-1254
▁our	-1255
▁limitations	-1256
▁associ	-1257
▁work	-1258
▁content	-1259
ified	-1260
▁direction	-1261
▁distortion	-1262
▁cle	-1263
▁potentially	-1264
▁viewpoin	-1265
▁quant	-1266
so	-1267
ons	-1268
▁cur	-1269
▁red	-1270
▁poss	-1271
▁your	-1272
▁distribution	-1273
driving	-1274
▁involve	-1275
▁maintain	-1276
▁components	-1277
▁also	-1278
ases	-1279
▁ey	-1280
based	-1281
fect	-1282
▁most	-1283
gether	-1284
▁together	-1285
▁ve	-1286
▁str	-1287
▁distances	-1288
▁recognizing	-1289
▁care	-1290
▁desired	-1291
NNs	-1292
▁illumination	-1293
▁faces	-1294
gg	-1295
▁mot	-1296
▁resolution	-1297
▁hig	-1298
▁trained	-1299
▁trying	-1300
▁transitions	-1301
▁being	-1302
ken	-1303
▁connect	-1304
vari	-1305
▁similarity	-1306
hic	-1307
▁vehic	-1308
ources	-1309
▁sensit	-1310
nO	-1311
▁lo	-1312
▁preserving	-1313
▁indic	-1314
▁surface	-1315
ages	-1316
ifact	-1317
▁properties	-1318
▁tiss	-1319
▁adjusting	-1320
ase	-1321
▁careful	-1322
▁Com	-1323
▁detecting	-1324
▁focuses	-1325
rain	-1326
▁artifact	-1327
▁effective	-1328
asing	-1329
▁sequ	-1330
▁driving	-1331
its	-1332
etter	-1333
▁motion	-1334
▁alter	-1335
▁aligning	-1336
▁Essentially	-1337
▁better	-1338
ivity	-1339
vers	-1340
▁ensuring	-1341
▁loss	-1342
▁smaller	-1343
▁tru	-1344
▁clos	-1345
ength	-1346
▁const	-1347
▁frequency	-1348
▁associated	-1349
▁caus	-1350
▁strugg	-1351
▁pict	-1352
▁artifacts	-1353
▁assum	-1354
▁provide	-1355
▁certain	-1356
▁intric	-1357
▁challenging	-1358
nOne	-1359
▁nat	-1360
clus	-1361
▁proble	-1362
▁less	-1363
atively	-1364
▁translation	-1365
▁diagnos	-1366
▁higher	-1367
▁bi	-1368
▁possible	-1369
▁assign	-1370
▁interpolation	-1371
▁squa	-1372
▁limitation	-1373
▁underlying	-1374
ef	-1375
▁minimizing	-1376
▁correspond	-1377
▁off	-1378
ifying	-1379
▁cent	-1380
▁intricate	-1381
▁human	-1382
▁frame	-1383
op	-1384
▁uses	-1385
▁When	-1386
▁taken	-1387
▁actual	-1388
ches	-1389
▁cat	-1390
▁esp	-1391
▁espec	-1392
▁especially	-1393
▁blurring	-1394
▁environments	-1395
▁employed	-1396
▁coordinates	-1397
uch	-1398
▁exist	-1399
▁parts	-1400
▁reducing	-1401
▁add	-1402
liers	-1403
▁further	-1404
▁fo	-1405
imensional	-1406
iven	-1407
▁cho	-1408
▁dev	-1409
ang	-1410
▁diver	-1411
▁pedestrians	-1412
rupt	-1413
ann	-1414
ry	-1415
▁fine	-1416
▁entire	-1417
▁optimization	-1418
arch	-1419
▁Feat	-1420
▁reduce	-1421
▁range	-1422
▁ensure	-1423
▁distortions	-1424
▁hist	-1425
▁slight	-1426
▁field	-1427
▁becomes	-1428
▁up	-1429
▁random	-1430
▁thresholding	-1431
▁best	-1432
amic	-1433
iency	-1434
▁errors	-1435
▁grou	-1436
▁will	-1437
hood	-1438
ering	-1439
▁task	-1440
line	-1441
▁much	-1442
▁lay	-1443
▁larger	-1444
ft	-1445
one	-1446
ises	-1447
▁ins	-1448
▁traditional	-1449
end	-1450
▁true	-1451
imes	-1452
▁perception	-1453
ategor	-1454
levant	-1455
▁produ	-1456
▁estimation	-1457
rix	-1458
▁labeled	-1459
▁categor	-1460
▁environment	-1461
yn	-1462
▁designed	-1463
▁road	-1464
▁obser	-1465
▁matrix	-1466
▁type	-1467
▁require	-1468
▁distinctive	-1469
ows	-1470
▁U	-1471
rit	-1472
▁diverse	-1473
▁occlus	-1474
▁contribute	-1475
▁sa	-1476
▁bel	-1477
▁see	-1478
▁match	-1479
▁ser	-1480
▁deep	-1481
▁lever	-1482
abil	-1483
▁contin	-1484
▁wa	-1485
▁equ	-1486
▁smoothing	-1487
▁heavi	-1488
apt	-1489
▁works	-1490
▁heavily	-1491
rans	-1492
▁Ne	-1493
lection	-1494
ctions	-1495
▁types	-1496
▁including	-1497
▁appearance	-1498
▁arises	-1499
▁descriptors	-1500
▁powerful	-1501
ory	-1502
▁identification	-1503
▁struggle	-1504
▁plays	-1505
to	-1506
rol	-1507
▁three	-1508
▁efficiency	-1509
▁pract	-1510
arity	-1511
▁vehicles	-1512
ap	-1513
▁ensures	-1514
RF	-1515
▁cap	-1516
▁rese	-1517
dimensional	-1518
▁reliable	-1519
▁another	-1520
AN	-1521
fore	-1522
▁dom	-1523
aging	-1524
▁Trans	-1525
▁frames	-1526
led	-1527
▁gl	-1528
▁saf	-1529
▁control	-1530
arget	-1531
▁isolate	-1532
▁estimate	-1533
▁loo	-1534
aces	-1535
▁directly	-1536
▁examples	-1537
phistic	-1538
▁miss	-1539
▁sophistic	-1540
iate	-1541
▁graph	-1542
olut	-1543
▁situ	-1544
▁ag	-1545
▁overlapping	-1546
▁sophisticated	-1547
▁deg	-1548
▁target	-1549
row	-1550
uous	-1551
▁dyn	-1552
▁compression	-1553
io	-1554
▁call	-1555
▁convolutional	-1556
▁tum	-1557
por	-1558
▁dow	-1559
▁interest	-1560
▁outc	-1561
pro	-1562
▁ben	-1563
▁behind	-1564
▁element	-1565
obal	-1566
▁prom	-1567
▁adapt	-1568
▁bal	-1569
▁weights	-1570
▁error	-1571
nL	-1572
very	-1573
▁known	-1574
vis	-1575
hed	-1576
▁sl	-1577
▁tool	-1578
▁incor	-1579
▁idea	-1580
▁vast	-1581
▁speed	-1582
▁crit	-1583
▁evalu	-1584
▁called	-1585
▁robot	-1586
▁diagnosis	-1587
▁magn	-1588
ware	-1589
▁achieving	-1590
ancing	-1591
▁init	-1592
▁scal	-1593
pling	-1594
▁every	-1595
reen	-1596
▁face	-1597
esc	-1598
gy	-1599
SA	-1600
▁locations	-1601
pening	-1602
iring	-1603
arest	-1604
▁captures	-1605
SAC	-1606
▁box	-1607
ANSAC	-1608
ypoin	-1609
▁Feature	-1610
▁maintaining	-1611
ally	-1612
ogram	-1613
▁outliers	-1614
▁situations	-1615
▁computationally	-1616
▁frequencies	-1617
▁hom	-1618
▁prev	-1619
ibility	-1620
▁eyes	-1621
▁linear	-1622
▁Transform	-1623
dent	-1624
▁combin	-1625
▁minimize	-1626
anced	-1627
▁Desc	-1628
▁viewpoints	-1629
▁iteratively	-1630
FT	-1631
▁influence	-1632
▁gu	-1633
▁unt	-1634
▁changing	-1635
▁represented	-1636
▁become	-1637
▁predicted	-1638
▁picture	-1639
nLet	-1640
ply	-1641
rin	-1642
▁amb	-1643
vised	-1644
pervised	-1645
▁reconstruction	-1646
▁One	-1647
▁simply	-1648
way	-1649
IFT	-1650
▁many	-1651
▁necess	-1652
▁traffic	-1653
▁until	-1654
▁relevant	-1655
▁reduction	-1656
▁numer	-1657
▁V	-1658
▁functions	-1659
▁rather	-1660
▁dark	-1661
▁amount	-1662
▁If	-1663
▁eas	-1664
▁address	-1665
▁navigate	-1666
▁again	-1667
inary	-1668
osing	-1669
▁devel	-1670
igid	-1671
▁surroundings	-1672
.\	-1673
▁detected	-1674
).	-1675
▁perceive	-1676
▁onto	-1677
▁against	-1678
▁valuable	-1679
▁develop	-1680
▁Its	-1681
▁area	-1682
▁domain	-1683
▁clarity	-1684
orph	-1685
puter	-1686
▁fields	-1687
▁initial	-1688
▁requiring	-1689
▁want	-1690
▁sum	-1691
▁clear	-1692
▁exper	-1693
▁world	-1694
▁provides	-1695
▁contour	-1696
fitting	-1697
ards	-1698
▁angle	-1699
▁keypoin	-1700
▁conf	-1701
▁providing	-1702
▁'	-1703
▁sole	-1704
▁metrics	-1705
ology	-1706
▁solely	-1707
▁videos	-1708
sequ	-1709
▁squares	-1710
▁enc	-1711
▁along	-1712
▁perfect	-1713
▁average	-1714
isy	-1715
time	-1716
▁moving	-1717
▁au	-1718
hers	-1719
▁noisy	-1720
▁Computer	-1721
ergy	-1722
▁pan	-1723
▁phys	-1724
▁vect	-1725
▁abrupt	-1726
seen	-1727
▁unseen	-1728
▁occlusions	-1729
alization	-1730
ribe	-1731
▁removing	-1732
▁she	-1733
▁seam	-1734
▁operat	-1735
▁tissue	-1736
imensions	-1737
▁only	-1738
ological	-1739
▁correct	-1740
▁differ	-1741
iding	-1742
▁dimensions	-1743
▁Describe	-1744
▁soft	-1745
olutions	-1746
▁map	-1747
▁limited	-1748
▁fail	-1749
▁miscon	-1750
▁misconception	-1751
▁sensitivity	-1752
atom	-1753
▁anatom	-1754
els	-1755
▁promin	-1756
ious	-1757
▁track	-1758
▁geometry	-1759
▁global	-1760
▁enco	-1761
▁Ad	-1762
phas	-1763
▁inde	-1764
▁wid	-1765
▁operation	-1766
▁dynamic	-1767
▁shadows	-1768
▁sat	-1769
▁prop	-1770
▁insight	-1771
▁sizes	-1772
▁enhancement	-1773
▁projection	-1774
ced	-1775
▁lik	-1776
▁realistic	-1777
▁manipulate	-1778
ping	-1779
▁clusters	-1780
▁determining	-1781
▁highlights	-1782
▁enhancing	-1783
▁org	-1784
▁RANSAC	-1785
▁solution	-1786
▁stat	-1787
▁classify	-1788
nal	-1789
▁prominent	-1790
imately	-1791
▁magnitu	-1792
▁Each	-1793
▁too	-1794
▁caused	-1795
▁assumpt	-1796
RI	-1797
▁av	-1798
▁expl	-1799
▁suit	-1800
▁regard	-1801
▁detailed	-1802
ery	-1803
▁utilize	-1804
▁regardless	-1805
▁stor	-1806
▁sources	-1807
▁measures	-1808
erence	-1809
▁presence	-1810
▁Re	-1811
▁stre	-1812
▁focusing	-1813
▁slightly	-1814
yscale	-1815
▁great	-1816
▁highlighting	-1817
▁creates	-1818
▁defined	-1819
rees	-1820
▁matches	-1821
▁ambig	-1822
▁emphas	-1823
wards	-1824
▁arise	-1825
▁describe	-1826
anted	-1827
resolution	-1828
▁handling	-1829
ick	-1830
CNNs	-1831
▁unw	-1832
▁practical	-1833
▁At	-1834
▁unwanted	-1835
play	-1836
ensive	-1837
▁views	-1838
ledge	-1839
rior	-1840
pass	-1841
▁maj	-1842
▁seamless	-1843
▁before	-1844
▁ult	-1845
▁continuous	-1846
▁energy	-1847
▁major	-1848
▁Un	-1849
▁manipulating	-1850
ived	-1851
▁found	-1852
▁occurs	-1853
▁software	-1854
▁lower	-1855
▁humans	-1856
▁calculate	-1857
▁depends	-1858
▁insights	-1859
▁treat	-1860
▁extracting	-1861
▁tem	-1862
▁steps	-1863
In	-1864
▁navigation	-1865
ink	-1866
▁final	-1867
▁prior	-1868
▁combining	-1869
▁missing	-1870
▁identifies	-1871
▁comparis	-1872
▁robustness	-1873
pendent	-1874
▁layers	-1875
▁selecting	-1876
▁ultimately	-1877
▁just	-1878
variant	-1879
▁anatomical	-1880
GB	-1881
▁balance	-1882
▁manipulation	-1883
▁highly	-1884
omen	-1885
▁knowledge	-1886
▁reality	-1887
▁down	-1888
▁phen	-1889
aster	-1890
▁enables	-1891
▁operates	-1892
▁phenomen	-1893
sequent	-1894
▁cost	-1895
▁clustering	-1896
ensity	-1897
▁needs	-1898
▁Th	-1899
rices	-1900
val	-1901
▁keypoints	-1902
▁regression	-1903
▁benef	-1904
▁times	-1905
▁length	-1906
▁refine	-1907
abilities	-1908
▁neighborhood	-1909
▁flow	-1910
▁improved	-1911
▁fit	-1912
▁sequence	-1913
ia	-1914
ough	-1915
▁somet	-1916
▁efficiently	-1917
terp	-1918
▁exc	-1919
idered	-1920
▁stand	-1921
▁experi	-1922
▁labels	-1923
▁An	-1924
▁binary	-1925
▁considered	-1926
▁j	-1927
▁blurry	-1928
pri	-1929
▁towards	-1930
▁panor	-1931
▁blue	-1932
▁signals	-1933
▁depending	-1934
▁rotations	-1935
▁princip	-1936
abl	-1937
fficient	-1938
stead	-1939
▁learns	-1940
ead	-1941
▁instead	-1942
me	-1943
▁maxim	-1944
▁Instead	-1945
▁SIFT	-1946
▁establ	-1947
▁gr	-1948
iting	-1949
▁person	-1950
▁finds	-1951
▁compos	-1952
▁subject	-1953
▁magnitude	-1954
imin	-1955
▁handle	-1956
▁histogram	-1957
▁acc	-1958
▁considering	-1959
uth	-1960
pite	-1961
▁despite	-1962
ables	-1963
aches	-1964
▁calculations	-1965
▁effects	-1966
▁stit	-1967
▁brain	-1968
▁greater	-1969
▁Networ	-1970
▁redund	-1971
▁grayscale	-1972
orphological	-1973
▁maps	-1974
▁iss	-1975
aneous	-1976
▁pose	-1977
▁orientations	-1978
▁probability	-1979
unts	-1980
▁arch	-1981
upervised	-1982
▁utilizes	-1983
osen	-1984
cessing	-1985
▁scales	-1986
▁shear	-1987
▁Se	-1988
itect	-1989
▁individuals	-1990
isions	-1991
▁surfaces	-1992
▁ax	-1993
▁flu	-1994
ending	-1995
▁assess	-1996
▁acco	-1997
▁internal	-1998
▁structuring	-1999
▁dem	-2000
▁suitable	-2001
▁tumors	-2002
des	-2003
▁given	-2004
▁special	-2005
▁introduce	-2006
▁correspondences	-2007
ont	-2008
▁step	-2009
imilar	-2010
▁natural	-2011
▁increasing	-2012
▁decision	-2013
),	-2014
cure	-2015
▁stra	-2016
▁compare	-2017
▁architect	-2018
ices	-2019
▁chosen	-2020
▁aspects	-2021
▁patient	-2022
▁mem	-2023
▁ones	-2024
▁refer	-2025
▁shifts	-2026
▁fore	-2027
▁altering	-2028
▁appropri	-2029
▁prog	-2030
▁determines	-2031
▁el	-2032
▁der	-2033
▁been	-2034
▁taking	-2035
▁iterative	-2036
▁ret	-2037
▁happ	-2038
▁nature	-2039
▁straight	-2040
▁technology	-2041
▁abs	-2042
▁bas	-2043
mar	-2044
requency	-2045
▁describes	-2046
▁variables	-2047
▁bounding	-2048
fter	-2049
▁visually	-2050
processing	-2051
▁shift	-2052
▁treatment	-2053
ource	-2054
▁Neural	-2055
variance	-2056
▁combination	-2057
▁corner	-2058
▁whether	-2059
ond	-2060
▁choice	-2061
▁photographs	-2062
▁sensors	-2063
▁imper	-2064
▁itself	-2065
▁existing	-2066
cap	-2067
▁nu	-2068
▁movements	-2069
air	-2070
▁extracted	-2071
arc	-2072
▁ratio	-2073
▁should	-2074
▁strate	-2075
▁boundary	-2076
▁phenomenon	-2077
▁neighbors	-2078
uity	-2079
▁obscure	-2080
▁reduces	-2081
▁improving	-2082
▁advant	-2083
ma	-2084
▁resources	-2085
▁star	-2086
▁pattern	-2087
▁selection	-2088
isely	-2089
▁decisions	-2090
▁establish	-2091
▁nearest	-2092
ularization	-2093
▁learned	-2094
▁precisely	-2095
▁overfitting	-2096
set	-2097
▁att	-2098
▁compress	-2099
▁perceived	-2100
▁independent	-2101
▁dra	-2102
▁autom	-2103
rad	-2104
alle	-2105
▁anim	-2106
▁consistency	-2107
▁z	-2108
erial	-2109
ancy	-2110
▁adj	-2111
▁relying	-2112
▁homograph	-2113
▁appropriate	-2114
archers	-2115
▁optical	-2116
ultaneous	-2117
versely	-2118
▁storage	-2119
▁imperfect	-2120
aps	-2121
▁photography	-2122
▁amounts	-2123
▁perspectives	-2124
▁remove	-2125
▁classes	-2126
▁mapping	-2127
▁poor	-2128
▁photo	-2129
▁affine	-2130
▁physical	-2131
▁-	-2132
not	-2133
▁depend	-2134
▁easier	-2135
ism	-2136
▁exh	-2137
alt	-2138
▁RGB	-2139
▁bloc	-2140
▁lights	-2141
▁coordinate	-2142
▁Convolutional	-2143
▁green	-2144
velength	-2145
▁researchers	-2146
▁boxes	-2147
yond	-2148
gence	-2149
▁quick	-2150
ilation	-2151
▁wavelength	-2152
▁biases	-2153
▁framewor	-2154
ctu	-2155
▁beyond	-2156
den	-2157
▁plane	-2158
▁pe	-2159
▁processed	-2160
▁reconstruct	-2161
ctors	-2162
▁augment	-2163
▁adjustments	-2164
▁war	-2165
▁path	-2166
linear	-2167
▁incorpor	-2168
▁constrain	-2169
▁arr	-2170
uminance	-2171
▁specialized	-2172
▁land	-2173
▁problem	-2174
dy	-2175
iveness	-2176
▁artific	-2177
,"	-2178
▁cats	-2179
▁sets	-2180
▁fluctu	-2181
▁averaging	-2182
nF	-2183
▁divid	-2184
alities	-2185
▁elect	-2186
▁rate	-2187
anning	-2188
▁repeat	-2189
ched	-2190
▁strong	-2191
ditionally	-2192
like	-2193
ually	-2194
▁deriv	-2195
▁focal	-2196
RFs	-2197
▁remains	-2198
▁observed	-2199
chan	-2200
andscap	-2201
▁problems	-2202
▁identified	-2203
▁solutions	-2204
▁imperfections	-2205
▁separate	-2206
▁criter	-2207
▁interpre	-2208
▁sensitive	-2209
see	-2210
▁rad	-2211
▁faster	-2212
▁respon	-2213
▁achieves	-2214
▁dimension	-2215
▁landscap	-2216
▁Additionally	-2217
▁subsequent	-2218
ature	-2219
▁least	-2220
▁define	-2221
CNN	-2222
pid	-2223
onsist	-2224
▁rapid	-2225
▁foreground	-2226
▁Ed	-2227
▁sharpening	-2228
frequency	-2229
▁inconsist	-2230
▁tissues	-2231
▁doctors	-2232
▁stitching	-2233
▁file	-2234
iction	-2235
▁precision	-2236
▁bro	-2237
▁supp	-2238
▁behavi	-2239
▁compre	-2240
▁outcomes	-2241
ustom	-2242
▁processes	-2243
▁directions	-2244
▁backgrounds	-2245
▁fol	-2246
▁wind	-2247
▁simultaneous	-2248
ways	-2249
▁segments	-2250
uration	-2251
▁custom	-2252
▁statist	-2253
ming	-2254
▁ver	-2255
▁luminance	-2256
▁artificial	-2257
▁grow	-2258
▁generate	-2259
▁long	-2260
▁photos	-2261
▁street	-2262
▁generalize	-2263
▁sampling	-2264
▁exhib	-2265
▁distinguishing	-2266
▁interpretation	-2267
irt	-2268
▁raw	-2269
▁rotating	-2270
▁viewpoint	-2271
▁invariance	-2272
▁vers	-2273
▁capable	-2274
▁pref	-2275
▁prediction	-2276
▁others	-2277
▁vectors	-2278
▁statistical	-2279
▁CNN	-2280
▁contours	-2281
▁detector	-2282
▁reflected	-2283
ings	-2284
▁setting	-2285
▁working	-2286
ids	-2287
ording	-2288
▁combine	-2289
▁fluctuations	-2290
▁simultaneously	-2291
▁posit	-2292
▁mechan	-2293
▁fal	-2294
▁framework	-2295
▁Their	-2296
▁matrices	-2297
ention	-2298
▁after	-2299
▁consideration	-2300
ak	-2301
angu	-2302
▁pin	-2303
▁acts	-2304
▁descriptor	-2305
rep	-2306
▁approaches	-2307
▁virt	-2308
▁component	-2309
▁doesn	-2310
▁ideal	-2311
▁combined	-2312
▁display	-2313
▁Reg	-2314
▁eye	-2315
iform	-2316
▁ran	-2317
der	-2318
▁enable	-2319
▁material	-2320
▁smoother	-2321
▁blending	-2322
ored	-2323
▁numerical	-2324
▁separating	-2325
▁analyzed	-2326
▁weighted	-2327
ising	-2328
▁robotics	-2329
▁effectiveness	-2330
▁looking	-2331
▁outputs	-2332
▁strateg	-2333
▁distorted	-2334
ered	-2335
▁draw	-2336
▁langu	-2337
▁eng	-2338
▁measurements	-2339
▁norm	-2340
alth	-2341
rect	-2342
▁cues	-2343
▁search	-2344
▁widely	-2345
▁account	-2346
▁outcome	-2347
▁broad	-2348
▁Conversely	-2349
als	-2350
▁del	-2351
▁false	-2352
▁health	-2353
anny	-2354
tered	-2355
▁white	-2356
▁elimin	-2357
▁virtual	-2358
RB	-2359
▁tools	-2360
▁center	-2361
supervised	-2362
ells	-2363
▁indicating	-2364
hens	-2365
▁sun	-2366
level	-2367
onging	-2368
▁safely	-2369
▁essence	-2370
▁related	-2371
▁belonging	-2372
▁assigning	-2373
▁parameter	-2374
ater	-2375
itig	-2376
arily	-2377
marks	-2378
▁principles	-2379
▁categories	-2380
rical	-2381
▁Canny	-2382
▁chann	-2383
▁fe	-2384
▁behavior	-2385
▁standard	-2386
▁assumption	-2387
▁calculates	-2388
▁mitig	-2389
▁comprehens	-2390
▁quickly	-2391
▁constraints	-2392
ded	-2393
▁overlap	-2394
▁analyzes	-2395
ortion	-2396
▁importance	-2397
▁regularization	-2398
lation	-2399
▁influenc	-2400
▁convolution	-2401
lex	-2402
▁fitting	-2403
▁language	-2404
▁hind	-2405
▁perfectly	-2406
ense	-2407
iness	-2408
▁pass	-2409
ompass	-2410
▁criteria	-2411
▁foll	-2412
def	-2413
▁flex	-2414
▁encompass	-2415
▁adv	-2416
▁morphological	-2417
▁Can	-2418
▁devi	-2419
▁hol	-2420
▁rest	-2421
▁simpler	-2422
▁predicting	-2423
off	-2424
▁Random	-2425
ST	-2426
ierarch	-2427
▁CNNs	-2428
▁subset	-2429
▁planning	-2430
▁differentiate	-2431
read	-2432
ampling	-2433
▁always	-2434
▁commonly	-2435
▁ambiguity	-2436
ene	-2437
▁body	-2438
▁group	-2439
▁variation	-2440
itates	-2441
▁inform	-2442
▁upd	-2443
▁rigid	-2444
▁convergence	-2445
▁tree	-2446
▁operator	-2447
▁detectors	-2448
defined	-2449
▁retain	-2450
▁arrange	-2451
▁happens	-2452
▁mer	-2453
allel	-2454
▁descent	-2455
▁express	-2456
▁variance	-2457
▁median	-2458
▁thresholds	-2459
▁shades	-2460
▁samples	-2461
▁On	-2462
▁wide	-2463
▁produce	-2464
▁wavelengths	-2465
for	-2466
▁ter	-2467
▁leads	-2468
▁critical	-2469
nFor	-2470
▁concepts	-2471
back	-2472
▁cross	-2473
▁distinction	-2474
▁MRI	-2475
▁bil	-2476
▁aligned	-2477
▁panoram	-2478
▁hierarch	-2479
▁interaction	-2480
eli	-2481
ted	-2482
▁incorrect	-2483
▁leverages	-2484
idence	-2485
▁shared	-2486
▁distribut	-2487
▁interpreting	-2488
ub	-2489
ward	-2490
▁locate	-2491
▁defining	-2492
▁carefully	-2493
osion	-2494
▁Networks	-2495
by	-2496
ral	-2497
▁mark	-2498
▁obst	-2499
▁feed	-2500
▁hard	-2501
▁multi	-2502
▁share	-2503
▁obstac	-2504
oses	-2505
▁density	-2506
ged	-2507
▁dise	-2508
▁integ	-2509
▁spect	-2510
▁landmarks	-2511
▁repl	-2512
▁erosion	-2513
ily	-2514
▁Rob	-2515
▁complete	-2516
obel	-2517
▁grid	-2518
▁Sobel	-2519
▁prevent	-2520
▁dilation	-2521
▁parallel	-2522
ud	-2523
▁sometimes	-2524
nH	-2525
ellig	-2526
▁clut	-2527
▁offer	-2528
▁likely	-2529
▁Think	-2530
▁trade	-2531
atically	-2532
▁quantify	-2533
▁comparison	-2534
▁isn	-2535
▁seen	-2536
."	-2537
▁factor	-2538
▁calib	-2539
unter	-2540
▁memory	-2541
▁kernels	-2542
▁connections	-2543
▁am	-2544
wise	-2545
▁why	-2546
poral	-2547
▁nose	-2548
▁source	-2549
▁comprehensive	-2550
▁warping	-2551
▁look	-2552
▁minimum	-2553
med	-2554
▁approxim	-2555
▁equalization	-2556
ones	-2557
▁sem	-2558
▁scan	-2559
▁closely	-2560
▁squared	-2561
▁sus	-2562
▁rays	-2563
▁sharpness	-2564
▁converting	-2565
▁correction	-2566
ists	-2567
▁don	-2568
rength	-2569
▁apply	-2570
▁leverage	-2571
gin	-2572
▁mar	-2573
means	-2574
▁user	-2575
▁ground	-2576
▁organs	-2577
▁involving	-2578
▁minimizes	-2579
▁simplifies	-2580
▁avo	-2581
elihood	-2582
▁interactions	-2583
ogene	-2584
▁reve	-2585
arding	-2586
gmentation	-2587
ensus	-2588
▁constant	-2589
▁follow	-2590
▁expensive	-2591
▁ir	-2592
rigid	-2593
▁inconsistencies	-2594
oriz	-2595
▁gaps	-2596
▁inputs	-2597
▁probabilities	-2598
▁dog	-2599
▁Robust	-2600
▁priorit	-2601
▁strength	-2602
reed	-2603
▁Edge	-2604
▁cells	-2605
▁impacts	-2606
▁graphics	-2607
▁obscured	-2608
▁calculated	-2609
nE	-2610
class	-2611
▁appears	-2612
▁augmented	-2613
ection	-2614
▁serve	-2615
▁notice	-2616
▁dimensionality	-2617
irc	-2618
antic	-2619
▁Four	-2620
▁signs	-2621
▁reflects	-2622
ars	-2623
▁unc	-2624
▁horiz	-2625
▁Fourier	-2626
▁intellig	-2627
▁incorporating	-2628
ading	-2629
iny	-2630
▁users	-2631
▁groups	-2632
▁required	-2633
rie	-2634
uture	-2635
▁pinpoin	-2636
▁dividing	-2637
▁operators	-2638
▁axis	-2639
▁circ	-2640
▁organ	-2641
▁still	-2642
cut	-2643
▁window	-2644
▁datab	-2645
▁according	-2646
▁future	-2647
▁retrie	-2648
Invariant	-2649
▁excess	-2650
▁actions	-2651
▁editing	-2652
▁quantifies	-2653
AST	-2654
▁numerous	-2655
▁pictures	-2656
▁experience	-2657
▁homography	-2658
▁offers	-2659
▁preprocessing	-2660
nHow	-2661
▁anch	-2662
▁right	-2663
▁truth	-2664
▁exhibit	-2665
ifications	-2666
ray	-2667
▁similarities	-2668
▁sk	-2669
vation	-2670
▁excel	-2671
▁sequences	-2672
ccess	-2673
▁buildings	-2674
▁likelihood	-2675
▁seamlessly	-2676
cer	-2677
▁To	-2678
oming	-2679
▁Cons	-2680
▁tumor	-2681
illions	-2682
▁transforming	-2683
▁hierarchical	-2684
▁transm	-2685
▁success	-2686
▁reference	-2687
atives	-2688
interp	-2689
▁annot	-2690
art	-2691
▁Me	-2692
rete	-2693
▁adding	-2694
▁influences	-2695
arr	-2696
▁sol	-2697
▁must	-2698
▁black	-2699
▁overly	-2700
▁introduces	-2701
▁Sh	-2702
inear	-2703
▁needed	-2704
▁arrangement	-2705
idel	-2706
▁irre	-2707
ateral	-2708
▁landscape	-2709
vele	-2710
▁vert	-2711
▁Similar	-2712
▁assigned	-2713
▁customer	-2714
▁away	-2715
▁degrees	-2716
▁discrep	-2717
▁get	-2718
ximity	-2719
▁however	-2720
▁previous	-2721
▁reliability	-2722
▁terms	-2723
▁bias	-2724
▁good	-2725
lement	-2726
▁imagery	-2727
▁employing	-2728
▁indicates	-2729
▁positives	-2730
oise	-2731
ople	-2732
▁shifting	-2733
▁format	-2734
▁presented	-2735
idden	-2736
ishing	-2737
▁avail	-2738
▁trees	-2739
▁people	-2740
▁discern	-2741
▁environmental	-2742
▁Al	-2743
rays	-2744
▁safe	-2745
▁progress	-2746
▁specifically	-2747
tsu	-2748
▁radi	-2749
▁CT	-2750
reo	-2751
connect	-2752
▁suscept	-2753
▁resizing	-2754
▁misinterp	-2755
▁proximity	-2756
▁strategies	-2757
nW	-2758
▁made	-2759
▁deform	-2760
▁millions	-2761
▁facil	-2762
raction	-2763
OL	-2764
curity	-2765
▁build	-2766
▁partition	-2767
▁pop	-2768
▁comes	-2769
▁predef	-2770
▁train	-2771
▁product	-2772
▁automatically	-2773
bed	-2774
▁secon	-2775
▁classifying	-2776
▁AI	-2777
▁stret	-2778
▁hidden	-2779
▁choosing	-2780
OLO	-2781
ident	-2782
▁Otsu	-2783
▁prefer	-2784
▁healthy	-2785
▁determined	-2786
ended	-2787
▁guide	-2788
▁second	-2789
▁grouping	-2790
▁indicate	-2791
▁security	-2792
▁redundant	-2793
▁flat	-2794
▁tren	-2795
▁fix	-2796
oring	-2797
DR	-2798
▁show	-2799
▁engine	-2800
lier	-2801
▁basic	-2802
▁degree	-2803
▁nuanced	-2804
▁converge	-2805
▁transforms	-2806
nC	-2807
ograp	-2808
▁issues	-2809
▁operate	-2810
▁uniform	-2811
▁contains	-2812
▁retrieval	-2813
▁predefined	-2814
▁flexibility	-2815
▁pen	-2816
▁state	-2817
idelity	-2818
▁explain	-2819
▁dependencies	-2820
▁ORB	-2821
nIn	-2822
▁things	-2823
▁misinterpret	-2824
ax	-2825
pected	-2826
▁selectively	-2827
▁necessitates	-2828
▁begin	-2829
▁fidelity	-2830
▁obstacles	-2831
▁advantages	-2832
▁translations	-2833
ably	-2834
▁Mean	-2835
▁broader	-2836
▁increased	-2837
▁visibility	-2838
▁development	-2839
▁Le	-2840
▁hy	-2841
icit	-2842
lines	-2843
oU	-2844
ores	-2845
▁mass	-2846
▁issue	-2847
▁sever	-2848
CA	-2849
▁unl	-2850
▁instances	-2851
ning	-2852
▁evaluating	-2853
▁curv	-2854
▁enough	-2855
▁uncertain	-2856
▁variability	-2857
▁gam	-2858
▁FAST	-2859
▁multip	-2860
▁current	-2861
▁finer	-2862
anishing	-2863
▁available	-2864
▁photograp	-2865
▁compressed	-2866
▁Cl	-2867
▁devices	-2868
▁intensive	-2869
▁calibration	-2870
opt	-2871
▁few	-2872
▁reas	-2873
▁ways	-2874
abeled	-2875
▁series	-2876
▁vector	-2877
▁transition	-2878
ex	-2879
▁acqu	-2880
▁reach	-2881
▁merging	-2882
ift	-2883
▁who	-2884
▁pair	-2885
▁stereo	-2886
▁horizont	-2887
▁lack	-2888
▁simul	-2889
▁lenses	-2890
▁correctly	-2891
▁curvature	-2892
sic	-2893
ighter	-2894
▁activ	-2895
▁Interp	-2896
▁intelligence	-2897
rinsic	-2898
hing	-2899
▁log	-2900
▁Scale	-2901
oration	-2902
ither	-2903
▁absor	-2904
radient	-2905
▁include	-2906
▁marking	-2907
▁generating	-2908
▁distributions	-2909
▁near	-2910
pective	-2911
▁integr	-2912
▁closer	-2913
▁modeling	-2914
▁pinpoint	-2915
▁centro	-2916
▁database	-2917
▁presents	-2918
▁reliance	-2919
▁connected	-2920
▁utilizing	-2921
▁uncertaint	-2922
▁experiences	-2923
itive	-2924
secut	-2925
▁either	-2926
▁consecut	-2927
▁involved	-2928
▁semantic	-2929
▁objective	-2930
▁partially	-2931
▁vol	-2932
▁score	-2933
▁deviate	-2934
▁cut	-2935
▁market	-2936
▁preferred	-2937
▁adjustment	-2938
ocu	-2939
▁visible	-2940
▁introducing	-2941
▁De	-2942
▁purposes	-2943
▁reflection	-2944
▁combinations	-2945
▁interpretations	-2946
▁Bl	-2947
▁adjac	-2948
▁closest	-2949
▁several	-2950
▁formation	-2951
▁architecture	-2952
ocal	-2953
▁ful	-2954
ently	-2955
▁fixed	-2956
▁reduced	-2957
▁temporal	-2958
▁downs	-2959
▁assumptions	-2960
EF	-2961
go	-2962
RIEF	-2963
efficient	-2964
▁adjacent	-2965
▁calculation	-2966
▁comparisons	-2967
▁consecutive	-2968
nI	-2969
▁belong	-2970
▁evaluation	-2971
▁Int	-2972
anged	-2973
▁bre	-2974
▁docu	-2975
▁Neighb	-2976
▁blocks	-2977
plac	-2978
rained	-2979
▁rotate	-2980
▁channels	-2981
nEssentially	-2982
▁generalization	-2983
▁freed	-2984
▁discarding	-2985
▁neg	-2986
▁freedom	-2987
▁consistently	-2988
▁Rot	-2989
▁anom	-2990
▁benefits	-2991
▁discrete	-2992
▁Interpolation	-2993
acies	-2994
arial	-2995
▁cancer	-2996
▁massive	-2997
▁matched	-2998
versarial	-2999
▁optimize	-3000
▁panorama	-3001
▁Consensus	-3002
▁tiny	-3003
▁exact	-3004
▁disrupt	-3005
▁increasingly	-3006
hile	-3007
▁ampl	-3008
inking	-3009
▁homogene	-3010
▁As	-3011
▁vehicle	-3012
▁confidence	-3013
▁differently	-3014
acement	-3015
▁implement	-3016
▁interacts	-3017
▁necessary	-3018
▁derivative	-3019
▁complexities	-3020
DDR	-3021
irst	-3022
ximum	-3023
▁were	-3024
▁refining	-3025
pos	-3026
ven	-3027
▁La	-3028
ample	-3029
▁Once	-3030
▁increase	-3031
▁measuring	-3032
▁occlusion	-3033
ner	-3034
▁scat	-3035
▁shearing	-3036
▁tail	-3037
▁Gradient	-3038
▁intended	-3039
▁relatively	-3040
▁Segmentation	-3041
▁sal	-3042
▁term	-3043
▁shrin	-3044
▁easily	-3045
▁combines	-3046
▁enhances	-3047
fact	-3048
▁mon	-3049
▁quest	-3050
▁viewed	-3051
▁minimal	-3052
ication	-3053
▁informed	-3054
nWhile	-3055
▁expos	-3056
placian	-3057
▁begins	-3058
▁events	-3059
▁blurred	-3060
▁explicit	-3061
▁redundancy	-3062
▁category	-3063
▁something	-3064
▁unlabeled	-3065
▁composition	-3066
▁aud	-3067
ost	-3068
▁Cont	-3069
caling	-3070
▁misclass	-3071
▁practice	-3072
▁increases	-3073
▁config	-3074
olor	-3075
▁fill	-3076
▁curves	-3077
▁primarily	-3078
▁relate	-3079
▁rotated	-3080
▁vanishing	-3081
▁leveraging	-3082
▁manage	-3083
▁mitigate	-3084
▁isolating	-3085
sh	-3086
▁cy	-3087
iders	-3088
▁considers	-3089
usts	-3090
▁sug	-3091
▁post	-3092
▁wider	-3093
▁stable	-3094
▁adjusts	-3095
▁improves	-3096
▁resolutions	-3097
perture	-3098
▁aiding	-3099
▁satell	-3100
▁Laplacian	-3101
▁extensive	-3102
▁inaccuracies	-3103
rum	-3104
▁ow	-3105
▁Over	-3106
▁fall	-3107
▁manif	-3108
▁though	-3109
nHowever	-3110
▁artistic	-3111
▁spectrum	-3112
▁independently	-3113
▁axes	-3114
bers	-3115
▁Non	-3116
▁ing	-3117
acing	-3118
izable	-3119
▁own	-3120
▁serves	-3121
URF	-3122
▁moves	-3123
▁repeated	-3124
▁generated	-3125
▁reflections	-3126
ood	-3127
ograms	-3128
▁stems	-3129
▁volum	-3130
▁sugges	-3131
▁markings	-3132
arer	-3133
▁Under	-3134
vations	-3135
▁clearer	-3136
▁unified	-3137
▁advantage	-3138
▁noticeable	-3139
ides	-3140
▁square	-3141
▁growing	-3142
▁pedestrian	-3143
pper	-3144
▁BRIEF	-3145
▁attention	-3146
▁normalization	-3147
▁ren	-3148
otion	-3149
usion	-3150
▁spaces	-3151
▁impacting	-3152
▁satellite	-3153
▁unsupervised	-3154
▁pa	-3155
ters	-3156
▁extre	-3157
quality	-3158
▁wavele	-3159
▁brighter	-3160
em	-3161
▁neur	-3162
▁comprom	-3163
▁panoramic	-3164
Ms	-3165
ute	-3166
▁close	-3167
▁affects	-3168
▁measured	-3169
▁research	-3170
▁questions	-3171
▁words	-3172
▁adaptive	-3173
▁labeling	-3174
▁ambiguous	-3175
▁estimating	-3176
▁Eu	-3177
lind	-3178
▁diss	-3179
▁opening	-3180
isc	-3181
▁Ham	-3182
clide	-3183
▁tend	-3184
▁sense	-3185
clidean	-3186
▁Hamming	-3187
▁advanced	-3188
mpt	-3189
▁Det	-3190
▁city	-3191
▁mouth	-3192
▁settings	-3193
▁diagnoses	-3194
▁mechanism	-3195
▁supervised	-3196
ots	-3197
tal	-3198
oint	-3199
▁gain	-3200
▁clean	-3201
▁performing	-3202
▁coefficient	-3203
▁estimations	-3204
▁Sp	-3205
▁top	-3206
▁sound	-3207
▁aperture	-3208
▁Euclidean	-3209
▁modalities	-3210
▁separation	-3211
▁derivatives	-3212
▁et	-3213
▁screen	-3214
abilistic	-3215
het	-3216
▁plan	-3217
mediate	-3218
▁stored	-3219
▁sharper	-3220
▁Features	-3221
▁Similarly	-3222
▁inherently	-3223
pe	-3224
ancies	-3225
▁Sample	-3226
▁machines	-3227
▁property	-3228
ring	-3229
arris	-3230
▁spur	-3231
▁poses	-3232
▁modify	-3233
▁reflectance	-3234
▁able	-3235
▁comm	-3236
▁nuances	-3237
▁spurious	-3238
▁segmenting	-3239
▁computation	-3240
▁observations	-3241
▁conc	-3242
▁Geomet	-3243
▁trends	-3244
▁starting	-3245
▁distinctions	-3246
▁blend	-3247
▁poorly	-3248
▁reason	-3249
▁requirements	-3250
▁foot	-3251
▁meet	-3252
▁Harris	-3253
▁optimizing	-3254
▁Opt	-3255
▁unre	-3256
▁penalt	-3257
▁longer	-3258
▁numbers	-3259
▁equations	-3260
▁separates	-3261
▁iterations	-3262
▁expressions	-3263
ros	-3264
uning	-3265
pa	-3266
▁mas	-3267
▁clutter	-3268
▁compact	-3269
▁influenced	-3270
▁capabilities	-3271
valu	-3272
▁Fiel	-3273
iasing	-3274
ission	-3275
▁Noise	-3276
▁forms	-3277
▁purch	-3278
▁total	-3279
▁Algorith	-3280
▁bilateral	-3281
▁dissimilar	-3282
▁emphasizing	-3283
aw	-3284
▁starts	-3285
▁Network	-3286
▁monit	-3287
▁anomal	-3288
▁outlines	-3289
▁den	-3290
▁abst	-3291
▁nodes	-3292
▁aligns	-3293
ographic	-3294
▁reliably	-3295
▁positioned	-3296
obs	-3297
rop	-3298
▁SURF	-3299
▁demands	-3300
▁maximum	-3301
▁Intensity	-3302
▁proportion	-3303
ads	-3304
isms	-3305
▁stu	-3306
iment	-3307
matic	-3308
▁brid	-3309
▁satis	-3310
▁popular	-3311
▁appealing	-3312
▁encounter	-3313
▁additional	-3314
▁individually	-3315
ero	-3316
omp	-3317
▁sn	-3318
▁hues	-3319
▁anomalies	-3320
▁significance	-3321
▁states	-3322
▁needing	-3323
▁sliding	-3324
▁electrical	-3325
▁transformed	-3326
▁shadow	-3327
▁ranging	-3328
▁saturation	-3329
▁deformation	-3330
▁photographers	-3331
▁dr	-3332
side	-3333
▁was	-3334
▁past	-3335
▁weak	-3336
▁Color	-3337
▁propos	-3338
▁facilit	-3339
▁version	-3340
▁suppression	-3341
ck	-3342
▁dee	-3343
▁goes	-3344
▁Least	-3345
▁vital	-3346
▁emphasize	-3347
▁gradually	-3348
▁revealing	-3349
▁progressively	-3350
SIFT	-3351
▁sear	-3352
▁nearby	-3353
▁proves	-3354
▁accordingly	-3355
▁far	-3356
agged	-3357
▁layer	-3358
▁Unlike	-3359
▁applies	-3360
▁vertical	-3361
▁transmission	-3362
▁resemb	-3363
▁central	-3364
▁removes	-3365
▁respons	-3366
▁hous	-3367
othing	-3368
▁basis	-3369
▁hinder	-3370
▁sample	-3371
▁irrelevant	-3372
▁stream	-3373
▁outlier	-3374
▁zo	-3375
pepper	-3376
▁overc	-3377
erences	-3378
▁assigns	-3379
▁navigating	-3380
▁correlation	-3381
▁dynam	-3382
▁commun	-3383
▁ranges	-3384
▁randomly	-3385
▁cancerous	-3386
▁sufficient	-3387
ety	-3388
▁impl	-3389
▁test	-3390
▁stands	-3391
▁tradeoff	-3392
▁histograms	-3393
▁sent	-3394
▁audio	-3395
▁linking	-3396
▁gap	-3397
▁memor	-3398
▁excels	-3399
ules	-3400
▁dict	-3401
▁disease	-3402
▁forming	-3403
▁introduced	-3404
▁probabilistic	-3405
cat	-3406
▁cand	-3407
maximum	-3408
istogram	-3409
▁anchors	-3410
▁whereas	-3411
connected	-3412
▁encompasses	-3413
etic	-3414
norm	-3415
▁bus	-3416
▁CRFs	-3417
▁lane	-3418
▁spam	-3419
▁closing	-3420
▁Algorithms	-3421
lar	-3422
mong	-3423
oling	-3424
▁Disc	-3425
▁four	-3426
▁among	-3427
▁candid	-3428
▁footage	-3429
▁influencing	-3430
Scale	-3431
▁darker	-3432
▁penalty	-3433
▁affecting	-3434
▁principal	-3435
icate	-3436
rient	-3437
refore	-3438
ortions	-3439
▁encode	-3440
▁interf	-3441
▁referred	-3442
▁variable	-3443
▁interplay	-3444
▁retaining	-3445
▁partitioning	-3446
▁Hom	-3447
▁simplify	-3448
▁sunlight	-3449
ibr	-3450
▁examining	-3451
up	-3452
acks	-3453
▁spl	-3454
▁bits	-3455
▁take	-3456
▁volume	-3457
▁expected	-3458
▁Geometric	-3459
▁horizontal	-3460
inant	-3461
olute	-3462
▁cases	-3463
forward	-3464
▁Vision	-3465
▁curved	-3466
▁illust	-3467
▁difficulties	-3468
▁interconnected	-3469
▁.	-3470
▁very	-3471
tering	-3472
▁surve	-3473
▁abnorm	-3474
▁benefit	-3475
▁localized	-3476
▁mechanisms	-3477
▁restoration	-3478
▁discrepancies	-3479
align	-3480
scale	-3481
tempt	-3482
▁Region	-3483
▁estimates	-3484
▁excessive	-3485
▁prioritize	-3486
▁projections	-3487
▁uncertainty	-3488
LA	-3489
nB	-3490
alog	-3491
yram	-3492
▁soc	-3493
▁slow	-3494
volving	-3495
▁scient	-3496
▁temper	-3497
▁suppress	-3498
▁stretching	-3499
prop	-3500
▁dogs	-3501
▁curve	-3502
▁degrad	-3503
▁exposure	-3504
▁workings	-3505
uler	-3506
changed	-3507
▁social	-3508
▁response	-3509
▁modifying	-3510
▁homogeneous	-3511
amo	-3512
ributes	-3513
▁attempt	-3514
▁adjusted	-3515
▁animation	-3516
▁continues	-3517
▁emphasizes	-3518
ayes	-3519
▁Pro	-3520
▁aest	-3521
▁salt	-3522
amount	-3523
nThese	-3524
▁scaled	-3525
▁aesthet	-3526
▁patches	-3527
▁subsets	-3528
▁document	-3529
▁evaluate	-3530
▁preserve	-3531
▁resource	-3532
▁paramount	-3533
▁connecting	-3534
▁adversarial	-3535
▁Cor	-3536
▁fast	-3537
▁Bayes	-3538
▁block	-3539
riented	-3540
▁access	-3541
▁cylind	-3542
▁inters	-3543
▁interpol	-3544
▁unchanged	-3545
▁positioning	-3546
▁Morphological	-3547
▁abnormalities	-3548
▁full	-3549
▁weat	-3550
making	-3551
agation	-3552
▁aiming	-3553
▁feedback	-3554
▁measurement	-3555
▁homographies	-3556
acr	-3557
prin	-3558
▁gray	-3559
▁prin	-3560
▁sacr	-3561
▁avoid	-3562
▁jagged	-3563
▁sacrific	-3564
▁centroids	-3565
▁segmented	-3566
)?	-3567
bs	-3568
▁removal	-3569
ee	-3570
icial	-3571
rence	-3572
▁decre	-3573
isition	-3574
▁Therefore	-3575
▁acquisition	-3576
▁IoU	-3577
▁seeks	-3578
▁dispar	-3579
▁weather	-3580
▁diagnose	-3581
atch	-3582
lobal	-3583
▁creation	-3584
MS	-3585
▁PCA	-3586
▁fewer	-3587
jection	-3588
▁distant	-3589
▁replacing	-3590
▁searching	-3591
▁susceptible	-3592
allax	-3593
▁ears	-3594
▁media	-3595
▁short	-3596
▁formul	-3597
▁filling	-3598
▁absolute	-3599
▁hindering	-3600
▁minimization	-3601
aks	-3602
▁Tra	-3603
▁embed	-3604
itative	-3605
▁invariant	-3606
▁Pre	-3607
struct	-3608
▁enlar	-3609
▁analog	-3610
▁defines	-3611
▁Histogram	-3612
▁struggles	-3613
.,	-3614
nIt	-3615
asts	-3616
atic	-3617
▁hue	-3618
▁blobs	-3619
▁exten	-3620
▁contributing	-3621
▁straightforward	-3622
ubic	-3623
ished	-3624
▁waves	-3625
▁decomp	-3626
▁deviation	-3627
▁mim	-3628
▁yet	-3629
ffine	-3630
thing	-3631
▁band	-3632
▁rece	-3633
ography	-3634
▁height	-3635
▁activation	-3636
▁beneficial	-3637
cent	-3638
arrow	-3639
▁explan	-3640
▁maximizing	-3641
▁quantization	-3642
ok	-3643
▁x	-3644
iece	-3645
▁Local	-3646
▁robots	-3647
▁materials	-3648
▁localization	-3649
▁Diff	-3650
▁Which	-3651
▁focused	-3652
▁bilinear	-3653
▁compromising	-3654
orts	-3655
▁dep	-3656
▁ris	-3657
ishes	-3658
▁Dist	-3659
▁rect	-3660
▁misalign	-3661
of	-3662
iec	-3663
▁prof	-3664
▁vibr	-3665
▁minor	-3666
▁morph	-3667
▁pyram	-3668
▁happen	-3669
▁encoding	-3670
▁incoming	-3671
▁subjective	-3672
▁dissimilarity	-3673
EG	-3674
ove	-3675
▁Then	-3676
▁Vari	-3677
▁piece	-3678
illance	-3679
▁eliminate	-3680
▁translate	-3681
use	-3682
▁piec	-3683
▁first	-3684
▁static	-3685
▁neurons	-3686
▁storing	-3687
▁assuming	-3688
▁addressing	-3689
▁deviations	-3690
imal	-3691
▁Bil	-3692
▁ske	-3693
▁Mult	-3694
▁rend	-3695
▁cause	-3696
▁templ	-3697
▁narrow	-3698
▁notable	-3699
▁enhanced	-3700
▁performs	-3701
▁frequently	-3702
ov	-3703
PEG	-3704
▁plat	-3705
▁stri	-3706
▁Euler	-3707
▁scores	-3708
▁architectures	-3709
ope	-3710
know	-3711
raft	-3712
ersity	-3713
▁subst	-3714
▁collect	-3715
▁crossing	-3716
▁platform	-3717
▁otherwise	-3718
▁blurriness	-3719
odes	-3720
itted	-3721
▁house	-3722
hoosing	-3723
▁Fields	-3724
▁Global	-3725
▁spread	-3726
▁collection	-3727
▁eliminating	-3728
▁necessarily	-3729
▁deformations	-3730
▁room	-3731
▁brains	-3732
▁minima	-3733
standing	-3734
▁gradual	-3735
▁simplified	-3736
▁downsampling	-3737
▁sig	-3738
▁advance	-3739
▁centers	-3740
▁undergo	-3741
▁rendering	-3742
▁engineering	-3743
▁temperature	-3744
▁surveillance	-3745
ugh	-3746
▁stud	-3747
oising	-3748
▁prime	-3749
▁teach	-3750
ropping	-3751
ications	-3752
▁differs	-3753
▁hardware	-3754
▁personal	-3755
▁Gra	-3756
▁zero	-3757
▁hyper	-3758
▁store	-3759
▁divide	-3760
▁pieces	-3761
▁overcome	-3762
▁characters	-3763
urb	-3764
idual	-3765
▁clou	-3766
▁lost	-3767
▁clearly	-3768
▁counter	-3769
▁satisfact	-3770
▁attributes	-3771
old	-3772
ption	-3773
▁below	-3774
▁incred	-3775
erspective	-3776
▁cluttered	-3777
▁	-3778
e	-3779
i	-3780
t	-3781
n	-3782
a	-3783
s	-3784
o	-3785
r	-3786
c	-3787
l	-3788
h	-3789
d	-3790
g	-3791
m	-3792
u	-3793
p	-3794
f	-3795
y	-3796
b	-3797
v	-3798
w	-3799
,	-3800
.	-3801
k	-3802
x	-3803
T	-3804
j	-3805
z	-3806
q	-3807
I	-3808
-	-3809
?	-3810
F	-3811
'	-3812
A	-3813
W	-3814
\	-3815
H	-3816
C	-3817
N	-3818
S	-3819
"	-3820
R	-3821
B	-3822
D	-3823
E	-3824
(	-3825
)	-3826
O	-3827
M	-3828
G	-3829
L	-3830
P	-3831
3	-3832
;	-3833
U	-3834
–	-3835
V	-3836
