<unk>	0
<s>	0
</s>	0
<0x00>	0
<0x01>	0
<0x02>	0
<0x03>	0
<0x04>	0
<0x05>	0
<0x06>	0
<0x07>	0
<0x08>	0
<0x09>	0
<0x0A>	0
<0x0B>	0
<0x0C>	0
<0x0D>	0
<0x0E>	0
<0x0F>	0
<0x10>	0
<0x11>	0
<0x12>	0
<0x13>	0
<0x14>	0
<0x15>	0
<0x16>	0
<0x17>	0
<0x18>	0
<0x19>	0
<0x1A>	0
<0x1B>	0
<0x1C>	0
<0x1D>	0
<0x1E>	0
<0x1F>	0
<0x20>	0
<0x21>	0
<0x22>	0
<0x23>	0
<0x24>	0
<0x25>	0
<0x26>	0
<0x27>	0
<0x28>	0
<0x29>	0
<0x2A>	0
<0x2B>	0
<0x2C>	0
<0x2D>	0
<0x2E>	0
<0x2F>	0
<0x30>	0
<0x31>	0
<0x32>	0
<0x33>	0
<0x34>	0
<0x35>	0
<0x36>	0
<0x37>	0
<0x38>	0
<0x39>	0
<0x3A>	0
<0x3B>	0
<0x3C>	0
<0x3D>	0
<0x3E>	0
<0x3F>	0
<0x40>	0
<0x41>	0
<0x42>	0
<0x43>	0
<0x44>	0
<0x45>	0
<0x46>	0
<0x47>	0
<0x48>	0
<0x49>	0
<0x4A>	0
<0x4B>	0
<0x4C>	0
<0x4D>	0
<0x4E>	0
<0x4F>	0
<0x50>	0
<0x51>	0
<0x52>	0
<0x53>	0
<0x54>	0
<0x55>	0
<0x56>	0
<0x57>	0
<0x58>	0
<0x59>	0
<0x5A>	0
<0x5B>	0
<0x5C>	0
<0x5D>	0
<0x5E>	0
<0x5F>	0
<0x60>	0
<0x61>	0
<0x62>	0
<0x63>	0
<0x64>	0
<0x65>	0
<0x66>	0
<0x67>	0
<0x68>	0
<0x69>	0
<0x6A>	0
<0x6B>	0
<0x6C>	0
<0x6D>	0
<0x6E>	0
<0x6F>	0
<0x70>	0
<0x71>	0
<0x72>	0
<0x73>	0
<0x74>	0
<0x75>	0
<0x76>	0
<0x77>	0
<0x78>	0
<0x79>	0
<0x7A>	0
<0x7B>	0
<0x7C>	0
<0x7D>	0
<0x7E>	0
<0x7F>	0
<0x80>	0
<0x81>	0
<0x82>	0
<0x83>	0
<0x84>	0
<0x85>	0
<0x86>	0
<0x87>	0
<0x88>	0
<0x89>	0
<0x8A>	0
<0x8B>	0
<0x8C>	0
<0x8D>	0
<0x8E>	0
<0x8F>	0
<0x90>	0
<0x91>	0
<0x92>	0
<0x93>	0
<0x94>	0
<0x95>	0
<0x96>	0
<0x97>	0
<0x98>	0
<0x99>	0
<0x9A>	0
<0x9B>	0
<0x9C>	0
<0x9D>	0
<0x9E>	0
<0x9F>	0
<0xA0>	0
<0xA1>	0
<0xA2>	0
<0xA3>	0
<0xA4>	0
<0xA5>	0
<0xA6>	0
<0xA7>	0
<0xA8>	0
<0xA9>	0
<0xAA>	0
<0xAB>	0
<0xAC>	0
<0xAD>	0
<0xAE>	0
<0xAF>	0
<0xB0>	0
<0xB1>	0
<0xB2>	0
<0xB3>	0
<0xB4>	0
<0xB5>	0
<0xB6>	0
<0xB7>	0
<0xB8>	0
<0xB9>	0
<0xBA>	0
<0xBB>	0
<0xBC>	0
<0xBD>	0
<0xBE>	0
<0xBF>	0
<0xC0>	0
<0xC1>	0
<0xC2>	0
<0xC3>	0
<0xC4>	0
<0xC5>	0
<0xC6>	0
<0xC7>	0
<0xC8>	0
<0xC9>	0
<0xCA>	0
<0xCB>	0
<0xCC>	0
<0xCD>	0
<0xCE>	0
<0xCF>	0
<0xD0>	0
<0xD1>	0
<0xD2>	0
<0xD3>	0
<0xD4>	0
<0xD5>	0
<0xD6>	0
<0xD7>	0
<0xD8>	0
<0xD9>	0
<0xDA>	0
<0xDB>	0
<0xDC>	0
<0xDD>	0
<0xDE>	0
<0xDF>	0
<0xE0>	0
<0xE1>	0
<0xE2>	0
<0xE3>	0
<0xE4>	0
<0xE5>	0
<0xE6>	0
<0xE7>	0
<0xE8>	0
<0xE9>	0
<0xEA>	0
<0xEB>	0
<0xEC>	0
<0xED>	0
<0xEE>	0
<0xEF>	0
<0xF0>	0
<0xF1>	0
<0xF2>	0
<0xF3>	0
<0xF4>	0
<0xF5>	0
<0xF6>	0
<0xF7>	0
<0xF8>	0
<0xF9>	0
<0xFA>	0
<0xFB>	0
<0xFC>	0
<0xFD>	0
<0xFE>	0
<0xFF>	0
in	-0
▁t	-1
▁a	-2
re	-3
on	-4
at	-5
he	-6
▁c	-7
es	-8
ing	-9
en	-10
ion	-11
is	-12
▁s	-13
er	-14
▁o	-15
al	-16
▁the	-17
it	-18
▁p	-19
or	-20
▁d	-21
an	-22
▁in	-23
▁an	-24
ct	-25
im	-26
▁f	-27
▁b	-28
▁m	-29
▁w	-30
ed	-31
▁re	-32
ar	-33
ro	-34
ation	-35
ent	-36
ic	-37
▁to	-38
le	-39
▁of	-40
▁and	-41
ag	-42
▁im	-43
et	-44
om	-45
ig	-46
▁l	-47
if	-48
▁imag	-49
ect	-50
us	-51
el	-52
▁v	-53
ut	-54
▁e	-55
res	-56
as	-57
▁T	-58
▁th	-59
▁com	-60
ce	-61
ur	-62
ch	-63
ith	-64
▁is	-65
ly	-66
un	-67
id	-68
▁comp	-69
ul	-70
ra	-71
il	-72
ow	-73
st	-74
igh	-75
iv	-76
ol	-77
▁image	-78
▁al	-79
ess	-80
▁n	-81
▁with	-82
▁con	-83
ations	-84
ist	-85
▁pro	-86
▁h	-87
ter	-88
▁or	-89
▁on	-90
ject	-91
▁for	-92
se	-93
▁ob	-94
his	-95
qu	-96
▁it	-97
▁This	-98
ial	-99
▁object	-100
ight	-101
▁be	-102
ment	-103
▁that	-104
ate	-105
und	-106
ke	-107
▁us	-108
pp	-109
pt	-110
ity	-111
▁vis	-112
▁mo	-113
ance	-114
▁g	-115
iz	-116
▁whe	-117
ions	-118
▁can	-119
▁The	-120
orm	-121
▁po	-122
ers	-123
▁as	-124
ure	-125
▁dat	-126
▁li	-127
ding	-128
▁det	-129
am	-130
form	-131
ures	-132
▁images	-133
ens	-134
▁app	-135
ren	-136
▁ac	-137
cess	-138
▁comput	-139
ific	-140
ans	-141
ver	-142
▁st	-143
eat	-144
▁I	-145
▁by	-146
ir	-147
▁ch	-148
ab	-149
▁le	-150
ign	-151
ies	-152
▁like	-153
▁ex	-154
▁sp	-155
etw	-156
iff	-157
og	-158
▁are	-159
▁int	-160
▁diff	-161
ac	-162
ot	-163
▁de	-164
▁ma	-165
▁wh	-166
▁sc	-167
ical	-168
ru	-169
▁process	-170
▁feat	-171
▁pi	-172
▁id	-173
▁W	-174
ine	-175
cur	-176
▁within	-177
ify	-178
▁data	-179
▁te	-180
ant	-181
eren	-182
ive	-183
▁vision	-184
▁se	-185
ts	-186
▁ident	-187
ff	-188
xel	-189
▁dist	-190
▁Wh	-191
ip	-192
▁pixel	-193
her	-194
▁F	-195
▁differen	-196
ual	-197
▁computer	-198
ges	-199
▁sh	-200
ari	-201
▁su	-202
ms	-203
rom	-204
ely	-205
een	-206
etween	-207
▁between	-208
▁tr	-209
▁from	-210
resent	-211
ve	-212
ge	-213
gor	-214
▁where	-215
▁rep	-216
ach	-217
red	-218
▁all	-219
▁rel	-220
▁en	-221
oc	-222
▁identify	-223
▁\	-224
▁objects	-225
all	-226
gorith	-227
▁features	-228
▁accur	-229
▁algorith	-230
ition	-231
act	-232
▁ne	-233
▁their	-234
▁anal	-235
▁represent	-236
▁ro	-237
▁analy	-238
▁trans	-239
▁cont	-240
ri	-241
▁detect	-242
▁inst	-243
▁its	-244
ec	-245
▁ed	-246
▁For	-247
os	-248
ds	-249
ks	-250
▁vari	-251
vol	-252
▁rec	-253
▁different	-254
um	-255
ors	-256
ult	-257
▁ca	-258
ain	-259
▁these	-260
▁reg	-261
▁allow	-262
pl	-263
▁A	-264
▁this	-265
▁par	-266
iqu	-267
▁eff	-268
alu	-269
▁tra	-270
ction	-271
▁instance	-272
per	-273
ased	-274
formation	-275
ous	-276
▁und	-277
▁me	-278
ient	-279
chn	-280
▁under	-281
ise	-282
▁techn	-283
▁cl	-284
▁H	-285
▁spec	-286
ile	-287
▁sim	-288
▁light	-289
▁poin	-290
▁sign	-291
▁res	-292
▁appl	-293
▁What	-294
▁used	-295
ves	-296
ating	-297
▁mat	-298
ust	-299
ential	-300
▁valu	-301
▁comple	-302
ces	-303
ogn	-304
▁techniqu	-305
▁recogn	-306
▁scen	-307
▁invol	-308
▁specific	-309
▁pat	-310
and	-311
▁ab	-312
▁complex	-313
king	-314
ize	-315
ss	-316
▁mod	-317
▁when	-318
▁imp	-319
ste	-320
▁algorithms	-321
▁chan	-322
▁ref	-323
▁based	-324
▁sha	-325
ns	-326
▁over	-327
ie	-328
▁col	-329
▁inter	-330
▁y	-331
▁lear	-332
est	-333
▁How	-334
▁ad	-335
▁more	-336
▁co	-337
▁sy	-338
▁visual	-339
ther	-340
▁un	-341
▁each	-342
ho	-343
▁per	-344
ph	-345
▁des	-346
▁no	-347
ail	-348
▁information	-349
▁cor	-350
ich	-351
▁edges	-352
▁met	-353
ou	-354
xt	-355
▁syste	-356
▁do	-357
▁learn	-358
▁underst	-359
ay	-360
▁which	-361
▁capt	-362
able	-363
▁applic	-364
▁tas	-365
▁model	-366
ort	-367
▁patter	-368
▁detection	-369
ments	-370
▁he	-371
▁C	-372
▁analyz	-373
round	-374
mo	-375
du	-376
▁effect	-377
▁r	-378
▁pixels	-379
ad	-380
ass	-381
▁It	-382
▁involves	-383
▁cons	-384
cial	-385
▁such	-386
▁signific	-387
▁how	-388
▁patterns	-389
▁In	-390
ution	-391
▁cru	-392
▁them	-393
▁crucial	-394
▁cre	-395
▁fil	-396
▁allows	-397
ility	-398
▁high	-399
ple	-400
▁ev	-401
gment	-402
▁significant	-403
▁out	-404
ide	-405
▁B	-406
▁intens	-407
ary	-408
ates	-409
ric	-410
▁tasks	-411
ining	-412
ful	-413
▁we	-414
out	-415
▁points	-416
itions	-417
▁into	-418
ively	-419
▁(	-420
▁other	-421
▁while	-422
ten	-423
enc	-424
▁metho	-425
▁you	-426
uring	-427
les	-428
▁detail	-429
▁using	-430
▁noise	-431
▁stru	-432
▁fin	-433
▁pre	-434
▁recognition	-435
▁bl	-436
ross	-437
▁ar	-438
▁values	-439
▁ind	-440
▁These	-441
▁color	-442
▁at	-443
ving	-444
▁filter	-445
▁shap	-446
▁might	-447
▁S	-448
▁gra	-449
ated	-450
ular	-451
▁appro	-452
istic	-453
ps	-454
ire	-455
age	-456
anding	-457
iple	-458
oth	-459
put	-460
uld	-461
▁bo	-462
aling	-463
▁loc	-464
▁part	-465
ately	-466
▁ph	-467
▁segment	-468
▁identifying	-469
▁inc	-470
our	-471
▁often	-472
▁across	-473
cept	-474
▁pos	-475
ue	-476
▁bec	-477
▁real	-478
rou	-479
▁transform	-480
ence	-481
hip	-482
▁pr	-483
▁pred	-484
▁processing	-485
▁relations	-486
rib	-487
sis	-488
▁relationship	-489
mon	-490
aset	-491
ress	-492
ast	-493
▁dataset	-494
ogra	-495
ilar	-496
▁text	-497
▁analysis	-498
▁med	-499
▁ext	-500
▁understanding	-501
ict	-502
ose	-503
▁scene	-504
▁even	-505
pect	-506
ace	-507
▁exam	-508
▁does	-509
allen	-510
▁challen	-511
▁cam	-512
▁hel	-513
▁align	-514
nT	-515
▁changes	-516
ness	-517
▁mult	-518
▁learning	-519
▁k	-520
▁sur	-521
ib	-522
▁use	-523
vel	-524
▁man	-525
gh	-526
▁E	-527
entially	-528
▁camer	-529
▁common	-530
▁struct	-531
▁R	-532
aus	-533
▁qu	-534
izing	-535
▁accurate	-536
▁capture	-537
▁various	-538
▁techniques	-539
ever	-540
▁intensity	-541
yp	-542
▁sub	-543
pon	-544
▁ele	-545
▁oper	-546
▁technique	-547
ract	-548
ization	-549
▁wor	-550
▁similar	-551
▁class	-552
chie	-553
▁By	-554
▁accurately	-555
▁regions	-556
ative	-557
▁achie	-558
▁variations	-559
▁ass	-560
▁interp	-561
▁pl	-562
ting	-563
▁predict	-564
▁phot	-565
▁partic	-566
▁medical	-567
ill	-568
▁ha	-569
▁algorithm	-570
▁feature	-571
ities	-572
▁opt	-573
▁foc	-574
ined	-575
▁segmentation	-576
▁ess	-577
▁approach	-578
▁cal	-579
lying	-580
▁br	-581
▁particular	-582
▁"	-583
lu	-584
▁requ	-585
ivid	-586
omet	-587
erm	-588
▁applications	-589
pen	-590
acy	-591
▁rob	-592
▁distin	-593
ack	-594
▁redu	-595
just	-596
▁throu	-597
▁lea	-598
▁system	-599
▁pot	-600
▁However	-601
▁min	-602
▁so	-603
▁multiple	-604
▁refers	-605
▁accuracy	-606
cul	-607
▁transformations	-608
ines	-609
▁em	-610
▁effectively	-611
▁through	-612
imit	-613
av	-614
▁Im	-615
▁bound	-616
▁fac	-617
light	-618
▁car	-619
▁rot	-620
ency	-621
▁calcul	-622
lect	-623
▁focus	-624
▁relationships	-625
▁perform	-626
▁systems	-627
▁limit	-628
tain	-629
▁if	-630
▁ke	-631
▁dis	-632
▁example	-633
respon	-634
▁training	-635
▁sens	-636
iew	-637
▁mean	-638
▁correspon	-639
▁minim	-640
▁making	-641
▁details	-642
mat	-643
▁determ	-644
▁typ	-645
▁imaging	-646
▁ens	-647
ration	-648
▁analyzing	-649
▁desc	-650
▁distinct	-651
ograph	-652
ighb	-653
ider	-654
ell	-655
▁optim	-656
ividual	-657
▁individual	-658
▁point	-659
▁effic	-660
▁aim	-661
▁then	-662
ret	-663
▁est	-664
▁enh	-665
▁particularly	-666
▁view	-667
ved	-668
etwor	-669
ching	-670
▁grad	-671
▁char	-672
ging	-673
ied	-674
▁allowing	-675
▁cond	-676
▁about	-677
▁tw	-678
▁methods	-679
▁edge	-680
▁param	-681
▁charact	-682
▁they	-683
▁lighting	-684
▁fun	-685
▁mis	-686
▁camera	-687
▁leading	-688
▁have	-689
th	-690
▁two	-691
▁impro	-692
de	-693
▁act	-694
▁adjust	-695
ling	-696
▁application	-697
ause	-698
ould	-699
ome	-700
▁neighb	-701
▁because	-702
hol	-703
▁O	-704
▁lar	-705
▁need	-706
▁prov	-707
▁sm	-708
▁size	-709
reshol	-710
▁distort	-711
▁dire	-712
▁character	-713
▁create	-714
ural	-715
ale	-716
▁conditions	-717
▁pers	-718
ification	-719
▁shape	-720
▁representation	-721
▁gen	-722
▁paramet	-723
requ	-724
▁bright	-725
▁robust	-726
▁consider	-727
▁result	-728
▁datasets	-729
▁regist	-730
▁blur	-731
▁smo	-732
rent	-733
eomet	-734
▁prec	-735
ld	-736
▁input	-737
▁dealing	-738
▁M	-739
▁position	-740
▁gradient	-741
▁threshol	-742
▁overall	-743
ational	-744
▁small	-745
▁Why	-746
▁go	-747
olution	-748
anc	-749
▁set	-750
riv	-751
▁due	-752
ish	-753
ality	-754
atial	-755
oin	-756
▁shar	-757
▁networ	-758
▁helps	-759
▁ability	-760
▁comb	-761
agn	-762
▁areas	-763
▁D	-764
▁appe	-765
▁gener	-766
▁G	-767
▁fact	-768
ically	-769
▁enab	-770
▁geomet	-771
▁elements	-772
aries	-773
now	-774
▁estim	-775
▁textures	-776
ys	-777
▁While	-778
▁spatial	-779
▁move	-780
ground	-781
nA	-782
▁relies	-783
▁key	-784
▁registration	-785
hemat	-786
▁what	-787
riving	-788
▁mathemat	-789
ime	-790
ower	-791
▁but	-792
▁characteristic	-793
ore	-794
ipul	-795
▁manipul	-796
▁neighbor	-797
▁both	-798
▁boundaries	-799
▁meas	-800
vir	-801
▁num	-802
viron	-803
▁environ	-804
ne	-805
ian	-806
abel	-807
▁prob	-808
▁N	-809
▁sam	-810
▁would	-811
▁method	-812
▁distance	-813
imens	-814
▁er	-815
▁know	-816
wor	-817
nThe	-818
▁analyze	-819
▁parameters	-820
▁pres	-821
ram	-822
▁value	-823
▁characteristics	-824
od	-825
▁computational	-826
▁those	-827
NN	-828
ability	-829
par	-830
get	-831
inc	-832
▁smooth	-833
▁brightness	-834
▁level	-835
▁They	-836
▁models	-837
▁back	-838
▁import	-839
are	-840
▁vide	-841
▁fi	-842
▁frequ	-843
▁ang	-844
▁potential	-845
ances	-846
▁scenes	-847
▁extract	-848
mental	-849
▁lies	-850
▁oc	-851
▁understand	-852
kes	-853
ital	-854
▁performance	-855
▁corn	-856
ern	-857
▁appear	-858
▁efficient	-859
ression	-860
▁perspect	-861
ized	-862
▁aff	-863
herent	-864
▁subt	-865
▁function	-866
▁art	-867
li	-868
▁mach	-869
▁mathematical	-870
▁shapes	-871
izes	-872
▁structure	-873
▁hand	-874
▁significantly	-875
▁transformation	-876
plo	-877
▁corresponding	-878
▁local	-879
▁orient	-880
agine	-881
▁surround	-882
ults	-883
hes	-884
▁interpret	-885
▁results	-886
ard	-887
▁challenge	-888
▁label	-889
▁meaning	-890
▁aims	-891
▁surrounding	-892
rast	-893
ext	-894
▁consist	-895
▁without	-896
▁trac	-897
▁photograph	-898
▁L	-899
▁could	-900
▁inherent	-901
ong	-902
▁dig	-903
hen	-904
▁may	-905
ible	-906
▁Imagine	-907
▁concept	-908
▁role	-909
▁princ	-910
inal	-911
▁matching	-912
▁ra	-913
con	-914
▁lead	-915
ception	-916
ind	-917
ays	-918
ord	-919
▁highlight	-920
▁change	-921
▁compar	-922
elf	-923
▁factors	-924
▁def	-925
▁vary	-926
▁enhance	-927
▁ta	-928
▁line	-929
▁subtle	-930
▁new	-931
▁orig	-932
▁aut	-933
rest	-934
itional	-935
▁machine	-936
▁than	-937
▁ste	-938
▁transl	-939
▁requi	-940
▁fiel	-941
uster	-942
▁context	-943
▁inf	-944
▁depen	-945
▁digital	-946
▁finding	-947
itu	-948
▁pur	-949
▁contain	-950
ree	-951
▁relative	-952
▁goal	-953
▁creating	-954
▁err	-955
▁bu	-956
ob	-957
▁prim	-958
▁design	-959
▁impact	-960
▁background	-961
▁applying	-962
volution	-963
ingu	-964
unda	-965
undamental	-966
▁not	-967
▁fundamental	-968
▁makes	-969
▁facial	-970
▁signal	-971
▁original	-972
ditional	-973
▁enabling	-974
▁large	-975
olog	-976
ents	-977
ination	-978
▁important	-979
world	-980
▁emplo	-981
▁reli	-982
▁resulting	-983
▁Con	-984
ared	-985
▁ut	-986
▁differences	-987
▁distingu	-988
▁contrast	-989
unt	-990
▁buil	-991
▁means	-992
▁space	-993
▁cluster	-994
▁P	-995
▁surf	-996
nThis	-997
▁help	-998
▁operations	-999
▁fram	-1000
ite	-1001
▁util	-1002
▁dec	-1003
▁reflect	-1004
pert	-1005
▁difference	-1006
raction	-1007
ying	-1008
▁blurr	-1009
pth	-1010
▁compon	-1011
▁make	-1012
▁rotation	-1013
▁geometric	-1014
▁distinguish	-1015
▁quality	-1016
▁perspective	-1017
▁sharp	-1018
▁corners	-1019
▁ill	-1020
▁hum	-1021
▁varying	-1022
ics	-1023
▁captured	-1024
co	-1025
▁applied	-1026
pping	-1027
▁essentially	-1028
▁colors	-1029
▁affect	-1030
ences	-1031
▁provid	-1032
▁any	-1033
▁determine	-1034
ange	-1035
ordin	-1036
▁imagine	-1037
cl	-1038
▁interact	-1039
▁sing	-1040
avig	-1041
▁navig	-1042
▁useful	-1043
▁computers	-1044
▁remo	-1045
▁precise	-1046
▁filters	-1047
▁depth	-1048
xim	-1049
ues	-1050
▁iter	-1051
▁preser	-1052
▁coordin	-1053
▁single	-1054
▁essential	-1055
imension	-1056
ark	-1057
▁distrib	-1058
▁capturing	-1059
ript	-1060
▁filtering	-1061
▁representing	-1062
▁purp	-1063
▁ent	-1064
▁primary	-1065
▁improve	-1066
▁di	-1067
nect	-1068
▁during	-1069
▁obs	-1070
▁scans	-1071
▁requires	-1072
ice	-1073
ifies	-1074
▁direct	-1075
avi	-1076
ernel	-1077
▁find	-1078
▁separ	-1079
▁form	-1080
▁orientation	-1081
▁disc	-1082
less	-1083
▁weight	-1084
▁simple	-1085
▁lens	-1086
▁present	-1087
▁cars	-1088
poin	-1089
▁alignment	-1090
▁scaling	-1091
▁descript	-1092
omes	-1093
▁numb	-1094
▁lines	-1095
▁exp	-1096
▁texture	-1097
▁complexity	-1098
▁recognize	-1099
▁simpl	-1100
gth	-1101
▁kernel	-1102
▁output	-1103
▁diagn	-1104
encies	-1105
▁power	-1106
iss	-1107
▁inclu	-1108
other	-1109
▁influ	-1110
reat	-1111
▁angles	-1112
cing	-1113
▁time	-1114
▁video	-1115
▁main	-1116
▁well	-1117
vant	-1118
▁principle	-1119
▁rem	-1120
▁measure	-1121
▁represents	-1122
▁scale	-1123
▁representations	-1124
▁there	-1125
▁scenari	-1126
▁location	-1127
ired	-1128
onom	-1129
stru	-1130
olation	-1131
te	-1132
▁rely	-1133
accur	-1134
▁core	-1135
▁beh	-1136
ertain	-1137
ffic	-1138
rodu	-1139
▁sensor	-1140
▁predictions	-1141
andom	-1142
▁consistent	-1143
eed	-1144
▁conver	-1145
▁extraction	-1146
▁inaccur	-1147
▁structures	-1148
ially	-1149
▁overl	-1150
▁has	-1151
ision	-1152
▁project	-1153
▁squ	-1154
▁around	-1155
▁classification	-1156
▁positions	-1157
ap	-1158
ep	-1159
▁cle	-1160
▁inte	-1161
itting	-1162
▁achieve	-1163
▁meaningful	-1164
▁some	-1165
so	-1166
▁propert	-1167
▁building	-1168
▁incre	-1169
ives	-1170
▁your	-1171
icult	-1172
▁also	-1173
▁optimal	-1174
▁difficult	-1175
▁div	-1176
▁corre	-1177
▁our	-1178
▁rat	-1179
▁perce	-1180
▁fl	-1181
▁comparing	-1182
▁compared	-1183
▁scenarios	-1184
▁general	-1185
▁low	-1186
ier	-1187
▁u	-1188
▁lo	-1189
▁self	-1190
mb	-1191
▁amo	-1192
▁employ	-1193
▁isol	-1194
▁threshold	-1195
▁Image	-1196
▁neural	-1197
▁region	-1198
onomous	-1199
▁purpose	-1200
ands	-1201
▁involve	-1202
▁shif	-1203
nO	-1204
esp	-1205
▁aver	-1206
▁intensities	-1207
▁focuses	-1208
▁limitations	-1209
▁autonomous	-1210
oss	-1211
▁neighboring	-1212
▁introdu	-1213
▁network	-1214
▁tracking	-1215
ase	-1216
▁describ	-1217
ane	-1218
▁ey	-1219
▁quant	-1220
cale	-1221
▁achieved	-1222
▁same	-1223
▁desired	-1224
▁potentially	-1225
fect	-1226
▁networks	-1227
▁shad	-1228
▁str	-1229
▁most	-1230
▁number	-1231
ger	-1232
ons	-1233
▁ide	-1234
▁components	-1235
▁direction	-1236
▁being	-1237
▁challenges	-1238
ified	-1239
▁cameras	-1240
▁uniqu	-1241
▁select	-1242
▁cur	-1243
▁movement	-1244
▁poss	-1245
▁metric	-1246
ases	-1247
based	-1248
▁aspect	-1249
▁remain	-1250
▁non	-1251
edest	-1252
edestri	-1253
▁distribution	-1254
▁illum	-1255
driving	-1256
▁gradients	-1257
auss	-1258
▁occur	-1259
▁ve	-1260
plain	-1261
▁maintain	-1262
▁content	-1263
▁levels	-1264
▁trying	-1265
▁one	-1266
aussian	-1267
▁unique	-1268
▁calculating	-1269
▁connect	-1270
▁nat	-1271
▁pedestri	-1272
rain	-1273
▁typically	-1274
▁red	-1275
▁distortion	-1276
▁surface	-1277
▁proble	-1278
nOne	-1279
gether	-1280
▁Gaussian	-1281
▁together	-1282
▁pict	-1283
▁alter	-1284
▁When	-1285
hic	-1286
ples	-1287
op	-1288
▁fur	-1289
▁hig	-1290
▁vehic	-1291
▁off	-1292
▁resolution	-1293
▁clos	-1294
▁tru	-1295
▁recon	-1296
volutional	-1297
▁work	-1298
▁reconstru	-1299
▁distances	-1300
vers	-1301
▁mot	-1302
ssentially	-1303
gg	-1304
▁way	-1305
▁tiss	-1306
asing	-1307
ages	-1308
▁effective	-1309
ources	-1310
▁diagnos	-1311
its	-1312
▁sensit	-1313
▁fo	-1314
▁care	-1315
▁properties	-1316
ength	-1317
▁pract	-1318
etter	-1319
ering	-1320
ken	-1321
▁see	-1322
▁inaccurate	-1323
▁recognizing	-1324
▁intric	-1325
▁ensuring	-1326
▁adjusting	-1327
▁smaller	-1328
▁frequency	-1329
▁better	-1330
▁containing	-1331
ribut	-1332
▁const	-1333
▁sequ	-1334
oci	-1335
▁assum	-1336
▁similarity	-1337
ang	-1338
▁provide	-1339
uch	-1340
▁driving	-1341
NNs	-1342
▁range	-1343
▁preserving	-1344
▁underlying	-1345
vari	-1346
ivity	-1347
▁less	-1348
▁trained	-1349
▁limitation	-1350
▁indic	-1351
▁motion	-1352
▁interpolation	-1353
▁certain	-1354
▁viewpoin	-1355
▁intricate	-1356
▁careful	-1357
▁bi	-1358
▁human	-1359
ft	-1360
▁dev	-1361
ifact	-1362
▁loss	-1363
▁including	-1364
▁uses	-1365
▁aligning	-1366
▁transitions	-1367
ann	-1368
end	-1369
▁produ	-1370
▁hist	-1371
▁strugg	-1372
▁detecting	-1373
line	-1374
▁higher	-1375
▁illumination	-1376
▁caus	-1377
▁artifact	-1378
▁possible	-1379
▁coordinates	-1380
iven	-1381
imensional	-1382
▁cent	-1383
▁translation	-1384
ry	-1385
liers	-1386
rit	-1387
▁cho	-1388
▁much	-1389
▁entire	-1390
ifying	-1391
▁faces	-1392
▁grou	-1393
▁add	-1394
▁actual	-1395
▁minimizing	-1396
arch	-1397
▁ensure	-1398
one	-1399
▁will	-1400
yn	-1401
▁associ	-1402
▁artifacts	-1403
▁ins	-1404
▁exist	-1405
▁esp	-1406
▁espec	-1407
▁especially	-1408
▁assign	-1409
▁environments	-1410
amic	-1411
atively	-1412
▁employed	-1413
▁Com	-1414
▁true	-1415
▁graph	-1416
▁optimization	-1417
ches	-1418
▁loo	-1419
▁parts	-1420
▁reducing	-1421
▁wa	-1422
rol	-1423
▁diver	-1424
ises	-1425
▁sa	-1426
▁Feat	-1427
▁obser	-1428
▁taken	-1429
▁up	-1430
levant	-1431
▁ser	-1432
▁task	-1433
▁challenging	-1434
▁cat	-1435
▁heavi	-1436
imes	-1437
▁heavily	-1438
rupt	-1439
iency	-1440
▁traditional	-1441
▁reduce	-1442
▁type	-1443
hood	-1444
▁fine	-1445
▁designed	-1446
ategor	-1447
ef	-1448
▁becomes	-1449
▁thresholding	-1450
▁lever	-1451
▁control	-1452
▁random	-1453
ory	-1454
▁blurring	-1455
▁pedestrians	-1456
clus	-1457
▁correspond	-1458
▁further	-1459
▁categor	-1460
▁environment	-1461
▁road	-1462
▁contin	-1463
▁lay	-1464
▁works	-1465
▁errors	-1466
▁ensures	-1467
▁Ex	-1468
▁larger	-1469
apt	-1470
▁best	-1471
▁situ	-1472
▁equ	-1473
ctions	-1474
utions	-1475
▁tool	-1476
rix	-1477
▁miscon	-1478
▁misconception	-1479
▁arises	-1480
▁matrix	-1481
▁require	-1482
▁U	-1483
▁perception	-1484
▁powerful	-1485
▁prom	-1486
▁field	-1487
▁match	-1488
arget	-1489
▁outc	-1490
▁dyn	-1491
▁call	-1492
▁slight	-1493
▁Essentially	-1494
▁saf	-1495
arity	-1496
▁frame	-1497
row	-1498
io	-1499
▁diverse	-1500
▁reliable	-1501
led	-1502
▁target	-1503
dimensional	-1504
▁deg	-1505
▁plays	-1506
▁another	-1507
▁directly	-1508
▁rese	-1509
▁fields	-1510
▁distortions	-1511
ows	-1512
abil	-1513
▁three	-1514
lection	-1515
▁vehicles	-1516
RF	-1517
▁bel	-1518
▁crit	-1519
very	-1520
ware	-1521
▁known	-1522
▁play	-1523
rans	-1524
▁associated	-1525
▁efficiency	-1526
AN	-1527
▁appearance	-1528
▁smoothing	-1529
nal	-1530
aging	-1531
▁gl	-1532
to	-1533
▁called	-1534
▁identification	-1535
ares	-1536
fore	-1537
▁compression	-1538
▁dom	-1539
▁cap	-1540
▁struggle	-1541
▁deep	-1542
▁interest	-1543
iate	-1544
▁types	-1545
▁every	-1546
anced	-1547
▁estimation	-1548
▁tum	-1549
▁distinctive	-1550
▁labeled	-1551
aces	-1552
▁picture	-1553
▁descriptors	-1554
▁diagnosis	-1555
▁'	-1556
▁situations	-1557
gy	-1558
uous	-1559
▁vast	-1560
▁Trans	-1561
ply	-1562
▁adapt	-1563
▁valuable	-1564
▁Explain	-1565
▁simply	-1566
▁contribut	-1567
▁speed	-1568
▁element	-1569
hed	-1570
▁dow	-1571
▁magn	-1572
ink	-1573
ud	-1574
por	-1575
▁ag	-1576
phistic	-1577
▁isolate	-1578
▁sophistic	-1579
ibility	-1580
▁linear	-1581
▁overla	-1582
▁sophisticated	-1583
obal	-1584
reen	-1585
ancing	-1586
▁devel	-1587
▁many	-1588
vis	-1589
▁miss	-1590
▁robot	-1591
▁occlus	-1592
▁exper	-1593
pro	-1594
pening	-1595
▁outliers	-1596
▁Ne	-1597
▁sl	-1598
▁init	-1599
▁world	-1600
▁develop	-1601
▁clear	-1602
▁evalu	-1603
▁error	-1604
▁frequencies	-1605
▁One	-1606
SA	-1607
iring	-1608
▁estimate	-1609
▁computationally	-1610
▁phys	-1611
▁changing	-1612
pling	-1613
SAC	-1614
ANSAC	-1615
▁incor	-1616
▁numer	-1617
▁represented	-1618
▁bal	-1619
▁soft	-1620
▁necess	-1621
▁ben	-1622
▁eyes	-1623
▁amount	-1624
▁relevant	-1625
ally	-1626
arest	-1627
▁weights	-1628
▁gu	-1629
▁eas	-1630
▁examples	-1631
▁only	-1632
▁If	-1633
▁enc	-1634
ology	-1635
▁hom	-1636
▁traffic	-1637
ogram	-1638
▁functions	-1639
▁sol	-1640
▁captures	-1641
▁provides	-1642
▁prev	-1643
▁locations	-1644
▁practical	-1645
▁behind	-1646
▁navigate	-1647
▁frames	-1648
▁clarity	-1649
▁perfect	-1650
▁reduction	-1651
▁maintaining	-1652
▁sole	-1653
▁face	-1654
inary	-1655
▁perceive	-1656
▁solely	-1657
▁dark	-1658
▁address	-1659
▁rather	-1660
▁scal	-1661
▁surroundings	-1662
▁Feature	-1663
dent	-1664
▁promin	-1665
▁minimize	-1666
▁box	-1667
hers	-1668
vised	-1669
pervised	-1670
▁Transform	-1671
▁achieving	-1672
▁requiring	-1673
▁overlapping	-1674
▁become	-1675
▁domain	-1676
ergy	-1677
igid	-1678
.\	-1679
▁area	-1680
▁Th	-1681
▁initial	-1682
▁convolutional	-1683
▁want	-1684
▁sum	-1685
▁iteratively	-1686
▁conf	-1687
▁stat	-1688
FT	-1689
▁prominent	-1690
orph	-1691
▁onto	-1692
▁predicted	-1693
ards	-1694
▁amb	-1695
▁dynamic	-1696
▁providing	-1697
sequ	-1698
▁again	-1699
fitting	-1700
▁unt	-1701
phas	-1702
▁idea	-1703
ypoin	-1704
▁org	-1705
▁contour	-1706
▁realistic	-1707
▁wid	-1708
▁insight	-1709
IFT	-1710
▁until	-1711
▁against	-1712
time	-1713
▁videos	-1714
▁software	-1715
osing	-1716
▁utilize	-1717
atom	-1718
▁found	-1719
▁squares	-1720
▁anatom	-1721
).	-1722
imately	-1723
ious	-1724
pass	-1725
▁limited	-1726
ced	-1727
▁detailed	-1728
▁vect	-1729
▁along	-1730
▁angle	-1731
▁average	-1732
▁she	-1733
▁solution	-1734
▁map	-1735
ables	-1736
▁operat	-1737
▁seam	-1738
▁tissue	-1739
▁V	-1740
▁stre	-1741
▁influence	-1742
▁enhancing	-1743
▁treat	-1744
▁experi	-1745
ological	-1746
▁prop	-1747
▁emphas	-1748
▁metrics	-1749
▁viewpoints	-1750
ery	-1751
iding	-1752
▁depends	-1753
imensions	-1754
▁removing	-1755
rees	-1756
▁manipulate	-1757
▁clusters	-1758
▁dimensions	-1759
seen	-1760
▁unseen	-1761
isy	-1762
▁lik	-1763
▁sat	-1764
▁detected	-1765
▁enco	-1766
▁fail	-1767
▁defined	-1768
▁av	-1769
▁pan	-1770
▁somet	-1771
▁correct	-1772
RI	-1773
▁Each	-1774
▁great	-1775
▁assumpt	-1776
▁reconstruction	-1777
▁inde	-1778
▁noisy	-1779
▁global	-1780
▁suit	-1781
▁moving	-1782
▁projection	-1783
▁track	-1784
cel	-1785
▁group	-1786
▁creates	-1787
▁focusing	-1788
ick	-1789
▁enhancement	-1790
▁energy	-1791
alization	-1792
▁geometry	-1793
resolution	-1794
▁operation	-1795
▁stor	-1796
▁magnitu	-1797
▁manipulation	-1798
In	-1799
▁just	-1800
▁RANSAC	-1801
rior	-1802
▁abrupt	-1803
▁enables	-1804
▁ult	-1805
▁final	-1806
▁sensitivity	-1807
▁signals	-1808
▁manipulating	-1809
rin	-1810
▁insights	-1811
▁keypoin	-1812
▁presence	-1813
▁variables	-1814
▁tem	-1815
▁highlighting	-1816
▁highlights	-1817
▁too	-1818
anted	-1819
▁prior	-1820
▁sources	-1821
▁continuous	-1822
yscale	-1823
▁shadows	-1824
erence	-1825
▁reality	-1826
▁ultimately	-1827
▁unw	-1828
puter	-1829
▁needs	-1830
▁subject	-1831
▁unwanted	-1832
▁arise	-1833
▁highly	-1834
omen	-1835
ledge	-1836
▁classify	-1837
▁phen	-1838
▁stand	-1839
▁differ	-1840
▁phenomen	-1841
▁seamless	-1842
ensive	-1843
iting	-1844
ia	-1845
isions	-1846
▁regression	-1847
ings	-1848
▁down	-1849
▁brain	-1850
▁before	-1851
▁anatomical	-1852
wards	-1853
▁expl	-1854
▁regard	-1855
esc	-1856
idered	-1857
▁considered	-1858
▁regardless	-1859
GB	-1860
ived	-1861
▁length	-1862
▁Re	-1863
ensity	-1864
▁compos	-1865
nL	-1866
▁gr	-1867
rices	-1868
▁lower	-1869
▁happ	-1870
▁measures	-1871
▁slightly	-1872
▁knowledge	-1873
▁j	-1874
▁person	-1875
▁internal	-1876
aster	-1877
▁sizes	-1878
pendent	-1879
▁Ad	-1880
ough	-1881
▁dra	-1882
▁matches	-1883
),	-1884
▁Un	-1885
sequent	-1886
▁navigation	-1887
▁flow	-1888
▁natural	-1889
▁treatment	-1890
ices	-1891
▁ambig	-1892
▁efficiently	-1893
▁Computer	-1894
▁fit	-1895
▁finds	-1896
▁occlusions	-1897
▁determining	-1898
▁iss	-1899
ustom	-1900
▁identifies	-1901
▁caused	-1902
▁nature	-1903
▁custom	-1904
▁comparis	-1905
▁utilizes	-1906
abl	-1907
▁dem	-1908
▁occurs	-1909
▁greater	-1910
▁displ	-1911
▁clustering	-1912
▁Desc	-1913
▁combining	-1914
▁establ	-1915
▁patient	-1916
▁binary	-1917
▁missing	-1918
▁rotations	-1919
▁prog	-1920
▁calculate	-1921
▁nu	-1922
▁maxim	-1923
▁effects	-1924
▁neighborhood	-1925
▁-	-1926
▁special	-1927
▁extracting	-1928
▁technology	-1929
▁ax	-1930
▁cost	-1931
▁invari	-1932
▁times	-1933
▁sequence	-1934
nF	-1935
abilities	-1936
▁magnitude	-1937
val	-1938
ource	-1939
▁learns	-1940
fficient	-1941
▁refine	-1942
▁depending	-1943
▁blurry	-1944
▁itself	-1945
▁histogram	-1946
▁considering	-1947
unts	-1948
▁layers	-1949
▁selecting	-1950
▁robustness	-1951
▁probability	-1952
▁abs	-1953
▁blue	-1954
▁suitable	-1955
▁photography	-1956
me	-1957
ead	-1958
▁flu	-1959
▁ret	-1960
▁instead	-1961
▁decision	-1962
cap	-1963
des	-1964
▁stra	-1965
▁redund	-1966
▁towards	-1967
▁individuals	-1968
▁given	-1969
▁decisions	-1970
aches	-1971
▁balance	-1972
▁describe	-1973
▁determines	-1974
▁panor	-1975
▁acco	-1976
▁steps	-1977
▁improved	-1978
▁grayscale	-1979
▁shear	-1980
▁labels	-1981
imin	-1982
▁combination	-1983
▁arch	-1984
▁handling	-1985
osen	-1986
▁physical	-1987
terp	-1988
▁acc	-1989
▁bas	-1990
▁humans	-1991
▁strate	-1992
▁calculations	-1993
ending	-1994
▁operates	-1995
▁straight	-1996
erred	-1997
stead	-1998
▁pref	-1999
▁tumors	-2000
▁Its	-2001
erial	-2002
▁anim	-2003
▁pattern	-2004
▁altering	-2005
▁Se	-2006
pite	-2007
itect	-2008
▁Instead	-2009
▁despite	-2010
▁el	-2011
nLet	-2012
▁fore	-2013
▁stit	-2014
▁visually	-2015
▁SIFT	-2016
▁excel	-2017
▁choice	-2018
ond	-2019
▁att	-2020
▁der	-2021
imilar	-2022
▁aspects	-2023
▁princip	-2024
fter	-2025
▁elect	-2026
▁morph	-2027
▁photo	-2028
▁views	-2029
▁surfaces	-2030
pri	-2031
▁should	-2032
upervised	-2033
▁behavi	-2034
▁compress	-2035
▁introduce	-2036
▁increasing	-2037
cessing	-2038
CNNs	-2039
▁chosen	-2040
▁problems	-2041
uth	-2042
▁existing	-2043
▁architect	-2044
▁benef	-2045
▁assess	-2046
▁handle	-2047
▁eng	-2048
ancy	-2049
▁keypoints	-2050
▁z	-2051
arc	-2052
▁maps	-2053
▁describes	-2054
ma	-2055
▁been	-2056
versely	-2057
▁taking	-2058
inance	-2059
▁iterative	-2060
▁star	-2061
▁photographs	-2062
requency	-2063
▁mem	-2064
isely	-2065
cure	-2066
ways	-2067
▁movements	-2068
mar	-2069
▁path	-2070
aneous	-2071
▁depend	-2072
▁storage	-2073
▁whether	-2074
▁precisely	-2075
▁phenomenon	-2076
▁consistency	-2077
▁sensors	-2078
anning	-2079
▁coordinate	-2080
▁maj	-2081
▁statist	-2082
▁working	-2083
ribe	-2084
andscap	-2085
▁boundary	-2086
▁pose	-2087
▁ratio	-2088
▁shift	-2089
▁structuring	-2090
▁scales	-2091
set	-2092
▁step	-2093
▁autom	-2094
▁major	-2095
▁respon	-2096
▁landscap	-2097
▁improving	-2098
alle	-2099
▁pe	-2100
▁rad	-2101
▁compare	-2102
processing	-2103
▁establish	-2104
▁bro	-2105
archers	-2106
▁Describe	-2107
▁draw	-2108
▁quick	-2109
▁nearest	-2110
▁statistical	-2111
▁correspondences	-2112
▁adjustments	-2113
yond	-2114
▁amounts	-2115
▁contribute	-2116
like	-2117
▁imper	-2118
▁resources	-2119
▁pa	-2120
angu	-2121
▁exh	-2122
ctors	-2123
▁bloc	-2124
▁beyond	-2125
▁bounding	-2126
den	-2127
ature	-2128
▁problem	-2129
▁neighbors	-2130
▁processes	-2131
▁overfitting	-2132
▁orientations	-2133
ography	-2134
▁affine	-2135
▁mapping	-2136
▁specialized	-2137
aps	-2138
▁RGB	-2139
▁ones	-2140
linear	-2141
iveness	-2142
▁compre	-2143
▁corner	-2144
▁shifts	-2145
▁researchers	-2146
uity	-2147
alities	-2148
▁arr	-2149
▁independent	-2150
RFs	-2151
▁appropri	-2152
velength	-2153
▁outcomes	-2154
▁war	-2155
rad	-2156
gments	-2157
▁reduces	-2158
▁relying	-2159
▁easier	-2160
uminance	-2161
▁optical	-2162
▁wavelength	-2163
▁file	-2164
▁langu	-2165
ularization	-2166
▁sets	-2167
▁extracted	-2168
▁plane	-2169
▁lights	-2170
▁adj	-2171
▁rate	-2172
▁remove	-2173
▁obscure	-2174
▁perceived	-2175
▁material	-2176
ctu	-2177
ming	-2178
▁poor	-2179
▁incorpor	-2180
▁doesn	-2181
▁dimension	-2182
alt	-2183
▁learned	-2184
▁behavior	-2185
▁observed	-2186
▁sensitive	-2187
▁del	-2188
▁define	-2189
▁imperfect	-2190
,"	-2191
▁classes	-2192
▁precision	-2193
▁land	-2194
▁Networ	-2195
ugment	-2196
▁processed	-2197
irt	-2198
nFor	-2199
ording	-2200
▁biases	-2201
▁faster	-2202
▁repeat	-2203
ism	-2204
▁street	-2205
▁essence	-2206
▁raw	-2207
▁acts	-2208
ompass	-2209
▁green	-2210
▁least	-2211
▁fluctu	-2212
▁related	-2213
ert	-2214
▁artific	-2215
▁doctors	-2216
▁constrain	-2217
▁supp	-2218
▁remains	-2219
▁segments	-2220
▁encompass	-2221
ilation	-2222
▁perspectives	-2223
▁Think	-2224
▁divid	-2225
▁looking	-2226
▁strong	-2227
▁sharpening	-2228
▁subsequent	-2229
arily	-2230
iction	-2231
▁broad	-2232
▁At	-2233
▁eye	-2234
▁vers	-2235
▁deriv	-2236
▁focal	-2237
▁outcome	-2238
▁solutions	-2239
ored	-2240
▁grow	-2241
▁long	-2242
▁augment	-2243
▁critical	-2244
▁language	-2245
als	-2246
▁criter	-2247
▁tissues	-2248
▁sampling	-2249
ually	-2250
▁selection	-2251
ids	-2252
▁bod	-2253
gence	-2254
▁mark	-2255
▁luminance	-2256
▁virt	-2257
not	-2258
pid	-2259
▁exhib	-2260
▁rapid	-2261
uration	-2262
▁An	-2263
alth	-2264
▁averaging	-2265
▁boxes	-2266
▁ideal	-2267
▁contours	-2268
▁component	-2269
ont	-2270
▁others	-2271
els	-2272
▁Ed	-2273
▁strateg	-2274
frequency	-2275
▁separate	-2276
▁identified	-2277
▁imperfections	-2278
ells	-2279
▁wind	-2280
▁after	-2281
▁always	-2282
▁health	-2283
▁combined	-2284
▁interpre	-2285
▁prediction	-2286
▁appropriate	-2287
hens	-2288
ention	-2289
ak	-2290
▁pin	-2291
▁ran	-2292
▁tools	-2293
▁numerical	-2294
▁artificial	-2295
▁widely	-2296
▁setting	-2297
ched	-2298
ultaneous	-2299
ense	-2300
▁reconstruct	-2301
▁interpretation	-2302
rep	-2303
▁fle	-2304
▁graphics	-2305
▁Conversely	-2306
▁foreground	-2307
▁measurements	-2308
▁effectiveness	-2309
▁rotating	-2310
▁comprehens	-2311
▁distinction	-2312
▁Neural	-2313
▁generate	-2314
▁robotics	-2315
ute	-2316
onsist	-2317
▁virtual	-2318
▁flex	-2319
▁warp	-2320
▁inform	-2321
iform	-2322
▁detector	-2323
▁inconsist	-2324
▁generalize	-2325
▁fol	-2326
▁vectors	-2327
▁fluctuations	-2328
▁advant	-2329
ising	-2330
der	-2331
▁fe	-2332
▁account	-2333
▁influenc	-2334
▁planning	-2335
▁perfectly	-2336
▁stitching	-2337
▁invariance	-2338
rical	-2339
tered	-2340
▁analyzed	-2341
▁smoother	-2342
ists	-2343
▁happens	-2344
▁approaches	-2345
ater	-2346
ered	-2347
▁user	-2348
▁customer	-2349
▁matrices	-2350
▁reflected	-2351
▁ter	-2352
▁photos	-2353
▁search	-2354
▁achieves	-2355
▁predicting	-2356
▁separating	-2357
▁combine	-2358
▁importance	-2359
iness	-2360
itive	-2361
ted	-2362
▁pass	-2363
▁cats	-2364
▁standard	-2365
▁directions	-2366
ded	-2367
▁look	-2368
▁white	-2369
▁dise	-2370
▁wide	-2371
ortion	-2372
▁quickly	-2373
CNN	-2374
back	-2375
▁elimin	-2376
▁safely	-2377
▁blending	-2378
▁MRI	-2379
▁sun	-2380
▁devi	-2381
▁capable	-2382
▁assumption	-2383
▁isn	-2384
variant	-2385
▁interaction	-2386
▁Reg	-2387
▁fal	-2388
▁center	-2389
▁integ	-2390
▁distorted	-2391
def	-2392
ily	-2393
see	-2394
▁hol	-2395
▁closely	-2396
▁viewpoint	-2397
anny	-2398
▁why	-2399
itates	-2400
▁simultaneous	-2401
▁Convolutional	-2402
by	-2403
▁outputs	-2404
▁convolution	-2405
▁CNNs	-2406
▁norm	-2407
▁weighted	-2408
chan	-2409
read	-2410
▁adv	-2411
▁simpler	-2412
▁descriptor	-2413
▁differentiate	-2414
▁offer	-2415
▁backgrounds	-2416
▁constraints	-2417
off	-2418
▁tree	-2419
ierarch	-2420
▁analyzes	-2421
lation	-2422
▁Canny	-2423
for	-2424
▁hind	-2425
▁seen	-2426
supervised	-2427
ditionally	-2428
▁carefully	-2429
▁categories	-2430
▁shared	-2431
▁variation	-2432
▁simultaneously	-2433
RB	-2434
▁cues	-2435
▁spect	-2436
▁shades	-2437
▁arrange	-2438
▁consideration	-2439
▁obst	-2440
▁false	-2441
▁fitting	-2442
▁leverages	-2443
ST	-2444
ene	-2445
▁hard	-2446
▁obstac	-2447
▁organ	-2448
▁rigid	-2449
defined	-2450
▁things	-2451
▁Additionally	-2452
marks	-2453
▁rest	-2454
▁subset	-2455
▁priorit	-2456
▁produce	-2457
▁experience	-2458
▁retain	-2459
▁overlap	-2460
▁criteria	-2461
▁sometimes	-2462
▁assigning	-2463
▁calculates	-2464
▁interactions	-2465
ward	-2466
▁hierarch	-2467
▁variance	-2468
▁sus	-2469
▁density	-2470
▁product	-2471
▁operator	-2472
▁connections	-2473
▁regularization	-2474
level	-2475
onging	-2476
▁concepts	-2477
▁belonging	-2478
▁parameter	-2479
▁distinguishing	-2480
eli	-2481
ral	-2482
itig	-2483
allel	-2484
▁grid	-2485
▁source	-2486
▁comprehensive	-2487
med	-2488
rect	-2489
▁body	-2490
▁factor	-2491
▁complete	-2492
▁wavelengths	-2493
work	-2494
▁mitig	-2495
▁On	-2496
oses	-2497
▁avo	-2498
▁enable	-2499
▁am	-2500
▁ambiguity	-2501
▁indicating	-2502
▁morphological	-2503
▁Random	-2504
▁engine	-2505
▁groups	-2506
▁median	-2507
▁editing	-2508
▁chann	-2509
▁users	-2510
▁involving	-2511
ins	-2512
▁bil	-2513
▁principles	-2514
▁mar	-2515
unter	-2516
▁multi	-2517
▁share	-2518
▁constant	-2519
▁foll	-2520
▁mechan	-2521
▁commonly	-2522
▁mer	-2523
osion	-2524
▁leads	-2525
▁likely	-2526
▁panoram	-2527
▁sharpness	-2528
iny	-2529
ones	-2530
wise	-2531
▁upd	-2532
▁rays	-2533
▁prevent	-2534
ading	-2535
▁reve	-2536
▁trade	-2537
atically	-2538
ged	-2539
▁Rob	-2540
▁dog	-2541
idence	-2542
ampling	-2543
▁offers	-2544
▁express	-2545
▁defining	-2546
▁parallel	-2547
▁cells	-2548
▁signs	-2549
▁descent	-2550
▁approxim	-2551
▁convergence	-2552
reed	-2553
▁erosion	-2554
▁feed	-2555
▁tren	-2556
▁repl	-2557
▁leverage	-2558
ars	-2559
▁scan	-2560
▁however	-2561
▁warping	-2562
▁axis	-2563
▁market	-2564
▁aligned	-2565
▁minimum	-2566
▁sem	-2567
ogene	-2568
▁explain	-2569
▁thresholds	-2570
nIn	-2571
▁sk	-2572
▁CNN	-2573
uture	-2574
▁inputs	-2575
obel	-2576
ellig	-2577
ensus	-2578
▁Sobel	-2579
▁locate	-2580
▁transm	-2581
▁minimizes	-2582
ray	-2583
▁future	-2584
▁interpreting	-2585
▁ir	-2586
arding	-2587
▁calib	-2588
elihood	-2589
▁pinpoin	-2590
▁samples	-2591
▁detectors	-2592
▁landscape	-2593
▁comparison	-2594
▁correction	-2595
▁don	-2596
▁still	-2597
▁squared	-2598
▁landmarks	-2599
hing	-2600
rength	-2601
▁cross	-2602
▁organs	-2603
▁quantify	-2604
▁equalization	-2605
▁specifically	-2606
▁get	-2607
ection	-2608
▁nuanced	-2609
▁similarities	-2610
▁unc	-2611
▁terms	-2612
▁expensive	-2613
nW	-2614
▁CT	-2615
means	-2616
poral	-2617
▁Four	-2618
▁memory	-2619
▁appears	-2620
▁degrees	-2621
▁transforming	-2622
."	-2623
▁Robust	-2624
▁adding	-2625
▁notice	-2626
▁Fourier	-2627
▁dilation	-2628
▁dimensionality	-2629
▁radi	-2630
▁facil	-2631
▁numerous	-2632
▁incorrect	-2633
▁sequences	-2634
▁reflects	-2635
▁To	-2636
ople	-2637
ograp	-2638
▁strength	-2639
rete	-2640
▁tumor	-2641
▁required	-2642
▁aw	-2643
▁nose	-2644
▁refer	-2645
▁people	-2646
▁buildings	-2647
▁preferred	-2648
▁pop	-2649
▁Cons	-2650
▁Edge	-2651
▁clut	-2652
▁must	-2653
▁actions	-2654
▁converting	-2655
▁development	-2656
oriz	-2657
antic	-2658
▁quantifies	-2659
▁arrangement	-2660
art	-2661
irc	-2662
▁Can	-2663
▁gaps	-2664
ximity	-2665
▁apply	-2666
▁datab	-2667
▁display	-2668
▁exhibit	-2669
▁according	-2670
▁operators	-2671
ub	-2672
▁Sh	-2673
▁good	-2674
▁comes	-2675
▁format	-2676
▁kernels	-2677
▁simplifies	-2678
▁conc	-2679
connect	-2680
▁needed	-2681
▁suscept	-2682
▁framework	-2683
▁likelihood	-2684
▁hierarchical	-2685
▁inconsistencies	-2686
ended	-2687
rigid	-2688
vation	-2689
▁ground	-2690
▁imagery	-2691
▁dividing	-2692
▁intellig	-2693
▁augmented	-2694
AST	-2695
▁Me	-2696
▁trees	-2697
nC	-2698
oring	-2699
▁show	-2700
▁black	-2701
▁horiz	-2702
▁serve	-2703
▁incorporating	-2704
▁probabilities	-2705
arr	-2706
▁gam	-2707
ccess	-2708
▁Their	-2709
▁window	-2710
▁obscured	-2711
▁seamlessly	-2712
▁ing	-2713
▁who	-2714
curity	-2715
▁stret	-2716
gmentation	-2717
▁photograp	-2718
▁proximity	-2719
▁irre	-2720
▁degree	-2721
▁broader	-2722
▁discern	-2723
▁discrep	-2724
▁strategies	-2725
▁reliability	-2726
rays	-2727
▁bias	-2728
▁success	-2729
▁influences	-2730
▁state	-2731
▁follow	-2732
▁employing	-2733
▁homography	-2734
▁flexibility	-2735
idel	-2736
vele	-2737
▁stud	-2738
ateral	-2739
▁assigned	-2740
▁resizing	-2741
class	-2742
▁made	-2743
▁safe	-2744
atives	-2745
▁right	-2746
rie	-2747
lement	-2748
▁Similar	-2749
oming	-2750
▁impacts	-2751
▁security	-2752
▁environmental	-2753
nH	-2754
ning	-2755
idden	-2756
▁vert	-2757
▁pictures	-2758
▁determined	-2759
▁fix	-2760
▁circ	-2761
▁something	-2762
▁calculated	-2763
inear	-2764
▁flat	-2765
▁issue	-2766
▁retrie	-2767
Invariant	-2768
nE	-2769
bed	-2770
▁aud	-2771
▁log	-2772
▁avail	-2773
▁simul	-2774
pected	-2775
illions	-2776
▁overly	-2777
▁experiences	-2778
▁dependencies	-2779
▁selectively	-2780
▁automatically	-2781
▁integr	-2782
▁previous	-2783
tsu	-2784
▁AI	-2785
▁devices	-2786
▁practice	-2787
▁indicates	-2788
▁preprocessing	-2789
▁predef	-2790
▁partition	-2791
▁ways	-2792
▁build	-2793
ifications	-2794
oise	-2795
ishing	-2796
▁basic	-2797
▁deform	-2798
▁hidden	-2799
▁progress	-2800
▁transition	-2801
ax	-2802
ently	-2803
▁series	-2804
▁reference	-2805
▁compressed	-2806
ocu	-2807
▁anch	-2808
ication	-2809
▁issues	-2810
ex	-2811
▁secon	-2812
▁sever	-2813
▁healthy	-2814
▁Networks	-2815
▁variability	-2816
DR	-2817
▁vol	-2818
▁away	-2819
▁mass	-2820
▁guide	-2821
▁lenses	-2822
▁current	-2823
▁uniform	-2824
▁intensive	-2825
ift	-2826
▁Otsu	-2827
▁lack	-2828
lines	-2829
▁Mean	-2830
▁truth	-2831
▁second	-2832
▁introduces	-2833
▁predefined	-2834
▁translations	-2835
▁ful	-2836
▁shifting	-2837
▁obstacles	-2838
▁docu	-2839
interp	-2840
▁informed	-2841
▁millions	-2842
▁transforms	-2843
▁operate	-2844
▁contains	-2845
▁increased	-2846
▁multip	-2847
icit	-2848
lier	-2849
▁beg	-2850
▁absor	-2851
idelity	-2852
▁visibility	-2853
hile	-2854
▁tail	-2855
▁sound	-2856
▁indicate	-2857
CA	-2858
▁marking	-2859
▁uncertain	-2860
OL	-2861
ores	-2862
▁pen	-2863
▁annot	-2864
▁posit	-2865
▁reach	-2866
▁assumptions	-2867
▁comm	-2868
▁fidelity	-2869
▁reliance	-2870
▁composition	-2871
▁mon	-2872
▁finer	-2873
▁excess	-2874
▁manage	-2875
▁artistic	-2876
▁converge	-2877
▁pinpoint	-2878
▁positives	-2879
▁primarily	-2880
ably	-2881
▁vector	-2882
▁misinterp	-2883
▁utilizing	-2884
▁reflection	-2885
▁necessitates	-2886
cut	-2887
▁term	-2888
inking	-2889
oration	-2890
▁reduced	-2891
▁choosing	-2892
▁objective	-2893
OLO	-2894
ner	-2895
▁bre	-2896
▁freed	-2897
▁few	-2898
▁acqu	-2899
▁curv	-2900
▁tiny	-2901
▁fixed	-2902
▁freedom	-2903
▁several	-2904
▁available	-2905
▁adjustment	-2906
▁Bl	-2907
▁intended	-2908
▁unl	-2909
nWhile	-2910
▁exact	-2911
▁evaluating	-2912
▁classifying	-2913
oU	-2914
▁hy	-2915
fact	-2916
anishing	-2917
▁discrete	-2918
▁necessary	-2919
reo	-2920
nHow	-2921
pective	-2922
▁closer	-2923
▁redundant	-2924
▁reas	-2925
ighter	-2926
▁purch	-2927
▁easily	-2928
▁curvature	-2929
iel	-2930
▁blocks	-2931
▁instances	-2932
▁retrieval	-2933
▁generating	-2934
▁calibration	-2935
ood	-2936
ost	-2937
▁Cl	-2938
▁ORB	-2939
acies	-2940
ither	-2941
▁FAST	-2942
▁semantic	-2943
▁presented	-2944
▁uncertaint	-2945
opt	-2946
▁purposes	-2947
▁Le	-2948
▁ampl	-2949
▁near	-2950
▁sense	-2951
▁train	-2952
▁events	-2953
▁De	-2954
▁ow	-2955
▁city	-2956
▁enough	-2957
▁connected	-2958
▁correctly	-2959
▁redundancy	-2960
▁neg	-2961
▁ren	-2962
▁scat	-2963
▁either	-2964
▁trends	-2965
aw	-2966
▁Al	-2967
omal	-2968
acement	-2969
▁though	-2970
▁database	-2971
▁evaluation	-2972
▁intelligence	-2973
▁misinterpret	-2974
rum	-2975
▁cut	-2976
▁own	-2977
rained	-2978
▁activ	-2979
▁score	-2980
▁stems	-2981
▁anomal	-2982
▁vehicle	-2983
▁spectrum	-2984
▁centro	-2985
inations	-2986
▁closest	-2987
▁merging	-2988
▁horizont	-2989
▁optimize	-2990
▁Consensus	-2991
▁introducing	-2992
arer	-2993
anged	-2994
ident	-2995
▁adjac	-2996
▁words	-2997
▁Interp	-2998
▁clearer	-2999
▁architecture	-3000
sic	-3001
ven	-3002
▁were	-3003
abeled	-3004
▁massive	-3005
▁visible	-3006
efficient	-3007
▁enhances	-3008
usion	-3009
▁pair	-3010
rinsic	-3011
radient	-3012
▁square	-3013
▁homogene	-3014
▁increase	-3015
▁interacts	-3016
plac	-3017
▁Rot	-3018
▁sal	-3019
▁adjacent	-3020
▁temporal	-3021
EF	-3022
RIEF	-3023
▁canc	-3024
▁commun	-3025
▁measured	-3026
▁presents	-3027
▁shearing	-3028
▁partially	-3029
▁comparisons	-3030
irst	-3031
ocal	-3032
▁deviate	-3033
▁disrupt	-3034
▁measuring	-3035
▁complexities	-3036
▁generalization	-3037
DDR	-3038
▁expos	-3039
▁rotate	-3040
▁increasingly	-3041
▁.	-3042
▁As	-3043
aplac	-3044
▁volum	-3045
▁Neighb	-3046
▁cancer	-3047
▁satell	-3048
aplacian	-3049
▁formation	-3050
▁derivative	-3051
▁discarding	-3052
▁distributions	-3053
▁Int	-3054
▁sug	-3055
▁begins	-3056
▁config	-3057
▁screen	-3058
▁numbers	-3059
mpt	-3060
▁resol	-3061
▁markings	-3062
▁combinations	-3063
ample	-3064
arial	-3065
▁post	-3066
▁blurred	-3067
▁unified	-3068
versarial	-3069
▁explicit	-3070
▁diagnoses	-3071
▁implement	-3072
▁calculation	-3073
▁interpretations	-3074
het	-3075
▁fall	-3076
perture	-3077
▁illust	-3078
▁include	-3079
▁advanced	-3080
▁inaccuracies	-3081
ximum	-3082
▁combines	-3083
▁panorama	-3084
▁Once	-3085
▁stereo	-3086
▁relatively	-3087
▁consistently	-3088
▁Interpolation	-3089
rop	-3090
▁isolating	-3091
▁Segmentation	-3092
ots	-3093
▁cy	-3094
ters	-3095
iders	-3096
▁Scale	-3097
▁sugges	-3098
▁opening	-3099
▁considers	-3100
▁inherently	-3101
▁leveraging	-3102
▁Cont	-3103
▁plan	-3104
▁manif	-3105
▁monit	-3106
▁spaces	-3107
▁refining	-3108
olor	-3109
▁audio	-3110
▁aiding	-3111
▁Laplacian	-3112
▁satellite	-3113
▁differently	-3114
Ms	-3115
sh	-3116
ides	-3117
▁downs	-3118
▁vital	-3119
▁wider	-3120
vations	-3121
▁curves	-3122
▁affects	-3123
▁comprom	-3124
▁category	-3125
▁repeated	-3126
▁extensive	-3127
▁vanishing	-3128
quality	-3129
▁serves	-3130
▁Features	-3131
▁occlusion	-3132
▁photographers	-3133
acing	-3134
matic	-3135
▁axes	-3136
▁gain	-3137
▁close	-3138
▁viewed	-3139
▁rotated	-3140
▁channels	-3141
▁workings	-3142
▁confidence	-3143
▁influenced	-3144
omp	-3145
▁top	-3146
ission	-3147
▁forms	-3148
▁Gradient	-3149
▁attention	-3150
nI	-3151
▁dict	-3152
▁clean	-3153
▁belong	-3154
▁impacting	-3155
▁unlabeled	-3156
play	-3157
▁bus	-3158
ograms	-3159
▁increases	-3160
caling	-3161
▁wavele	-3162
▁aperture	-3163
▁electrical	-3164
▁encompasses	-3165
▁dee	-3166
▁brid	-3167
▁sent	-3168
▁temper	-3169
▁disease	-3170
▁pedestrian	-3171
ros	-3172
▁hous	-3173
mediate	-3174
▁modify	-3175
▁stored	-3176
▁adaptive	-3177
pa	-3178
etic	-3179
▁minimal	-3180
▁involved	-3181
ring	-3182
usts	-3183
▁extre	-3184
▁moves	-3185
▁excels	-3186
▁stable	-3187
ographic	-3188
▁adjusts	-3189
▁whereas	-3190
▁brighter	-3191
▁research	-3192
▁variable	-3193
▁supervised	-3194
tal	-3195
▁Non	-3196
otion	-3197
secut	-3198
▁diss	-3199
▁nuances	-3200
▁consecut	-3201
)?	-3202
go	-3203
▁able	-3204
▁appealing	-3205
▁separation	-3206
air	-3207
ety	-3208
ount	-3209
▁mas	-3210
▁soc	-3211
▁proves	-3212
▁scient	-3213
▁respons	-3214
▁labeling	-3215
▁machines	-3216
▁paramount	-3217
▁noticeable	-3218
▁optimizing	-3219
ads	-3220
▁Ham	-3221
▁relate	-3222
▁shadow	-3223
▁stream	-3224
▁Hamming	-3225
▁matched	-3226
▁misclass	-3227
URF	-3228
oint	-3229
pper	-3230
▁far	-3231
▁fill	-3232
▁social	-3233
▁ranging	-3234
▁modeling	-3235
nEssentially	-3236
▁consecutive	-3237
▁observations	-3238
▁significance	-3239
▁unsupervised	-3240
bs	-3241
▁Eu	-3242
▁blend	-3243
▁Sample	-3244
▁benefits	-3245
▁transmission	-3246
clide	-3247
▁abst	-3248
ancies	-3249
clidean	-3250
abilistic	-3251
▁mitigate	-3252
▁settings	-3253
▁advantages	-3254
▁estimating	-3255
▁deformation	-3256
▁resolutions	-3257
isc	-3258
▁was	-3259
iment	-3260
▁goes	-3261
▁past	-3262
izable	-3263
erences	-3264
▁improves	-3265
▁Similarly	-3266
▁proportion	-3267
▁reflections	-3268
norm	-3269
valu	-3270
▁den	-3271
▁neur	-3272
▁tend	-3273
▁BRIEF	-3274
▁dynam	-3275
▁starts	-3276
▁growing	-3277
▁sharper	-3278
▁version	-3279
ographies	-3280
▁advantage	-3281
▁equations	-3282
▁independently	-3283
▁zo	-3284
▁Over	-3285
▁Euclidean	-3286
▁generated	-3287
▁modalities	-3288
pe	-3289
▁meet	-3290
▁total	-3291
▁navigating	-3292
▁derivatives	-3293
▁requirements	-3294
ibr	-3295
lind	-3296
▁prin	-3297
▁spur	-3298
▁interf	-3299
▁longer	-3300
nHowever	-3301
▁bilateral	-3302
▁coefficient	-3303
▁emphasizing	-3304
▁capabilities	-3305
▁lane	-3306
▁spam	-3307
▁weat	-3308
iasing	-3309
▁penalt	-3310
connected	-3311
▁spurious	-3312
ck	-3313
arris	-3314
▁Under	-3315
▁mouth	-3316
▁nodes	-3317
▁Geomet	-3318
▁access	-3319
▁central	-3320
▁demands	-3321
▁popular	-3322
▁attribut	-3323
▁encounter	-3324
▁emphasizes	-3325
ble	-3326
▁Opt	-3327
▁aest	-3328
▁avoid	-3329
▁Unlike	-3330
▁abnorm	-3331
▁states	-3332
▁aesthet	-3333
▁performing	-3334
▁reflectance	-3335
▁normalization	-3336
▁Sp	-3337
▁gap	-3338
▁CRFs	-3339
▁test	-3340
▁unre	-3341
▁waves	-3342
▁applies	-3343
▁facilit	-3344
▁outlines	-3345
▁anomalies	-3346
▁take	-3347
▁reason	-3348
▁weather	-3349
▁interplay	-3350
▁Det	-3351
▁foot	-3352
▁media	-3353
▁seeks	-3354
▁Harris	-3355
▁volume	-3356
▁resource	-3357
▁panoramic	-3358
▁dissimilar	-3359
▁suppression	-3360
▁dep	-3361
thing	-3362
uning	-3363
▁hues	-3364
▁poorly	-3365
▁notable	-3366
▁starting	-3367
▁saturation	-3368
▁et	-3369
▁layer	-3370
▁linking	-3371
▁maximum	-3372
▁referred	-3373
▁Intensity	-3374
▁emphasize	-3375
▁transformed	-3376
▁prof	-3377
nThese	-3378
▁shrin	-3379
▁resemb	-3380
▁grouping	-3381
▁property	-3382
▁computation	-3383
amet	-3384
icate	-3385
▁full	-3386
▁Color	-3387
▁basis	-3388
▁satis	-3389
▁stands	-3390
▁examining	-3391
▁positioned	-3392
▁segmenting	-3393
▁correlation	-3394
▁engineering	-3395
▁abnormalities	-3396
▁dr	-3397
ortions	-3398
▁compact	-3399
▁separates	-3400
olute	-3401
▁impl	-3402
▁plat	-3403
forward	-3404
volving	-3405
▁nearby	-3406
▁creation	-3407
▁reliably	-3408
▁localized	-3409
▁revealing	-3410
▁iterations	-3411
▁sufficient	-3412
ece	-3413
ished	-3414
▁sear	-3415
othing	-3416
▁piece	-3417
▁quest	-3418
▁closing	-3419
▁personal	-3420
▁platform	-3421
▁ambiguous	-3422
▁retaining	-3423
▁irrelevant	-3424
ero	-3425
side	-3426
▁mus	-3427
▁analog	-3428
▁hinder	-3429
▁propos	-3430
▁ranges	-3431
▁animation	-3432
▁additional	-3433
▁prioritize	-3434
▁estimations	-3435
▁Tra	-3436
▁SURF	-3437
▁Noise	-3438
▁aiming	-3439
▁sliding	-3440
▁difficulties	-3441
ee	-3442
▁sn	-3443
acks	-3444
rient	-3445
▁very	-3446
maximum	-3447
▁happen	-3448
▁forming	-3449
▁needing	-3450
▁influencing	-3451
▁temperature	-3452
▁individually	-3453
uler	-3454
▁spl	-3455
agged	-3456
tempt	-3457
▁gray	-3458
making	-3459
▁cases	-3460
▁poses	-3461
▁document	-3462
▁cancerous	-3463
▁accordingly	-3464
▁positioning	-3465
ope	-3466
mong	-3467
▁four	-3468
▁among	-3469
▁curve	-3470
▁height	-3471
▁removes	-3472
▁interconnected	-3473
ayes	-3474
▁Comp	-3475
▁prime	-3476
▁aligns	-3477
▁attempt	-3478
▁expected	-3479
▁materials	-3480
▁histograms	-3481
▁stretching	-3482
▁expressions	-3483
▁probabilistic	-3484
ok	-3485
ules	-3486
▁piec	-3487
▁weak	-3488
refore	-3489
▁Bayes	-3490
▁short	-3491
▁gradually	-3492
▁measurement	-3493
pepper	-3494
▁exten	-3495
▁darker	-3496
▁decomp	-3497
▁focused	-3498
▁diagnose	-3499
▁vertical	-3500
▁cand	-3501
▁vibr	-3502
tering	-3503
▁memor	-3504
▁formul	-3505
▁differs	-3506
▁outlier	-3507
▁exposure	-3508
▁response	-3509
▁progressively	-3510
asts	-3511
▁sample	-3512
▁penalty	-3513
▁preserve	-3514
▁marketing	-3515
▁introduced	-3516
▁susceptible	-3517
▁contributing	-3518
▁illustration	-3519
▁partitioning	-3520
obs	-3521
prop	-3522
▁Fiel	-3523
▁bits	-3524
▁surve	-3525
itative	-3526
riented	-3527
▁candid	-3528
istogram	-3529
▁assigns	-3530
scale	-3531
▁rend	-3532
▁room	-3533
struct	-3534
▁absolute	-3535
▁adjusted	-3536
▁attributes	-3537
▁homogeneous	-3538
▁uncertainty	-3539
▁x	-3540
ixel	-3541
prin	-3542
▁PCA	-3543
▁ris	-3544
▁Disc	-3545
▁depict	-3546
▁pieces	-3547
▁patches	-3548
▁estimates	-3549
▁mechanism	-3550
up	-3551
▁Te	-3552
Scale	-3553
▁band	-3554
▁rece	-3555
ternal	-3556
▁overc	-3557
▁Region	-3558
▁Network	-3559
▁simplify	-3560
▁suppress	-3561
▁principal	-3562
▁connecting	-3563
▁projections	-3564
▁straightforward	-3565
▁dogs	-3566
▁Morph	-3567
▁house	-3568
▁clutter	-3569
▁footage	-3570
▁interpol	-3571
▁randomly	-3572
▁discrepancies	-3573
yram	-3574
▁Least	-3575
▁feedback	-3576
▁sunlight	-3577
▁targeted	-3578
▁Geometric	-3579
▁restoration	-3580
lar	-3581
orts	-3582
▁imm	-3583
icial	-3584
itted	-3585
oling	-3586
▁incred	-3587
▁online	-3588
▁anchors	-3589
▁affecting	-3590
▁deviation	-3591
▁rendering	-3592
ron	-3593
▁Hom	-3594
ience	-3595
▁block	-3596
agation	-3597
changed	-3598
▁dispar	-3599
▁inters	-3600
standing	-3601
▁continues	-3602
▁quantization	-3603
LA	-3604
acr	-3605
SIFT	-3606
▁che	-3607
▁ske	-3608
rence	-3609
▁fast	-3610
▁sacr	-3611
▁stri	-3612
▁degrad	-3613
▁entities	-3614
▁sacrific	-3615
▁modifying	-3616
nB	-3617
▁mim	-3618
inant	-3619
▁brains	-3620
▁encode	-3621
▁drawback	-3622
▁questions	-3623
▁collection	-3624
atic	-3625
▁Cor	-3626
▁curved	-3627
▁safety	-3628
▁scaled	-3629
▁spread	-3630
▁evaluate	-3631
▁tradeoff	-3632
▁unchanged	-3633
▁characters	-3634
▁horizontal	-3635
▁necessarily	-3636
ibly	-3637
ishes	-3638
▁store	-3639
▁prices	-3640
▁removal	-3641
▁enhanced	-3642
know	-3643
ffine	-3644
▁MRFs	-3645
▁slow	-3646
▁decre	-3647
▁clearly	-3648
▁defines	-3649
▁Algorith	-3650
▁Therefore	-3651
▁hindering	-3652
▁adversarial	-3653
▁homographies	-3654
▁localization	-3655
▁manipulations	-3656
▁visualization	-3657
aks	-3658
isms	-3659
arrow	-3660
▁distant	-3661
▁subsets	-3662
▁segmented	-3663
▁beneficial	-3664
cat	-3665
allax	-3666
▁ears	-3667
▁word	-3668
▁Euler	-3669
▁embed	-3670
isition	-3671
▁cylind	-3672
▁deeper	-3673
▁encoding	-3674
▁centroids	-3675
▁deviations	-3676
▁acquisition	-3677
EG	-3678
▁hue	-3679
align	-3680
▁teach	-3681
▁jagged	-3682
▁travel	-3683
▁collect	-3684
▁filling	-3685
▁physics	-3686
▁incoming	-3687
▁searching	-3688
▁incredibly	-3689
cent	-3690
▁IoU	-3691
▁cro	-3692
▁mir	-3693
▁crow	-3694
▁salt	-3695
▁customers	-3696
▁landscapes	-3697
▁maximizing	-3698
MS	-3699
▁pain	-3700
▁program	-3701
▁thereby	-3702
▁difficulty	-3703
▁simplified	-3704
▁subjective	-3705
▁compromising	-3706
▁minimization	-3707
▁Morphological	-3708
PEG	-3709
▁yet	-3710
lobal	-3711
▁first	-3712
jection	-3713
▁histor	-3714
▁narrow	-3715
▁invariant	-3716
▁replacing	-3717
ove	-3718
ubic	-3719
▁read	-3720
▁rect	-3721
▁Light	-3722
▁belie	-3723
▁cause	-3724
▁action	-3725
▁employs	-3726
▁gradual	-3727
▁performs	-3728
▁eliminate	-3729
▁struggles	-3730
▁foundation	-3731
▁frequently	-3732
▁problematic	-3733
▁Gra	-3734
▁email	-3735
▁enlar	-3736
▁deline	-3737
▁counter	-3738
▁otherwise	-3739
urb	-3740
▁fig	-3741
icity	-3742
▁Diff	-3743
▁fewer	-3744
▁static	-3745
▁bilinear	-3746
▁offering	-3747
▁eliminating	-3748
.,	-3749
xing	-3750
▁case	-3751
▁lost	-3752
▁pyram	-3753
▁whole	-3754
▁growth	-3755
▁logistic	-3756
▁Histogram	-3757
▁establishing	-3758
of	-3759
atch	-3760
▁Pre	-3761
bject	-3762
force	-3763
▁minor	-3764
▁activation	-3765
▁deformations	-3766
▁dissimilarity	-3767
onal	-3768
▁Vari	-3769
▁Local	-3770
▁encod	-3771
▁convers	-3772
▁illumin	-3773
▁reading	-3774
▁realism	-3775
▁assuming	-3776
▁platforms	-3777
▁	-3778
e	-3779
i	-3780
t	-3781
a	-3782
n	-3783
s	-3784
o	-3785
r	-3786
c	-3787
l	-3788
h	-3789
d	-3790
g	-3791
m	-3792
u	-3793
p	-3794
f	-3795
y	-3796
b	-3797
v	-3798
w	-3799
,	-3800
.	-3801
k	-3802
T	-3803
x	-3804
j	-3805
z	-3806
q	-3807
I	-3808
-	-3809
?	-3810
F	-3811
W	-3812
'	-3813
A	-3814
\	-3815
H	-3816
C	-3817
N	-3818
S	-3819
R	-3820
"	-3821
B	-3822
D	-3823
(	-3824
)	-3825
E	-3826
O	-3827
M	-3828
G	-3829
L	-3830
P	-3831
3	-3832
;	-3833
U	-3834
2	-3835
V	-3836
